f7
0f
f5
ed
e2
f6
f1
e8
eb
fe
ee
0a
10
ea
f8
f2
ed
10
e6
0e
f6
ff
e6
05
f2
fc
f2
fb
f7
e6
fd
ef
e6
0a
f8
14
01
f4
fb
ec
0e
01
01
db
df
fd
d1
eb
02
f7
10
ff
e7
fc
ea
fd
09
00
f6
e2
e4
d8
07
fd
dc
02
f7
f8
d9
04
e9
03
09
f5
02
f7
d8
e1
fe
e5
ef
df
d6
fd
28
1c
06
f1
f2
f8
f2
fd
0a
20
08
1c
1a
1a
0c
ef
0e
0a
eb
07
1f
ed
02
02
e1
e0
06
e8
14
0d
f7
01
fc
f0
de
07
0b
05
ea
e1
f8
0b
12
15
fc
fb
09
e5
f0
06
e7
ed
e6
09
ef
12
00
16
05
09
02
ed
e4
e4
ec
00
e2
13
f0
f3
11
ea
17
e6
fe
e5
f1
06
e6
04
09
dc
fe
f8
02
0c
15
13
11
19
f7
07
00
10
03
f9
08
08
0e
ef
e8
df
ee
e5
02
e6
e1
08
eb
0f
e8
09
03
fe
12
e8
f9
ed
ef
ff
17
01
04
10
fa
ec
12
18
0e
ee
0f
eb
00
1b
08
10
f2
13
e3
09
ea
10
f1
0f
07
13
0d
fe
18
1c
fe
07
09
f8
ec
f1
ed
03
fd
f7
ee
00
db
f1
01
d9
f1
ff
15
07
e1
f6
f9
01
07
12
f0
f3
19
e7
f7
0d
d8
09
e2
e6
13
fd
ea
10
e6
01
ea
10
e1
02
1a
f5
f4
00
0a
12
f0
f6
f3
f4
f1
05
f4
ea
e9
e7
01
03
10
df
00
05
16
07
0d
04
02
00
ef
1a
02
02
e7
eb
00
e7
01
fd
f2
f8
fc
ef
e6
0c
06
ea
fc
e4
11
f4
fd
ed
18
1d
0b
dd
f1
f5
fc
ed
0a
01
16
f8
16
01
01
ea
0e
0a
04
12
fc
e6
fe
ff
11
f0
f9
07
18
ea
f3
15
02
e5
ff
0d
02
0e
18
ef
f6
01
16
0f
eb
f0
15
ea
11
ee
f6
12
da
de
d6
0c
1f
e4
16
e4
06
f1
d8
f7
06
17
f5
e4
ea
1d
eb
02
dd
e8
dd
ed
03
05
0c
f1
dc
f7
fd
e6
fa
e9
e9
0b
f2
f8
e2
f9
e1
f1
02
f2
07
e9
13
ff
d7
ef
f6
03
ec
e6
fc
e1
0d
fa
f8
05
17
e8
ec
05
de
f9
ec
df
f2
ec
0c
f4
db
05
08
ee
e8
d8
e4
f1
0a
04
f5
03
19
fb
00
ea
15
e8
1c
16
0b
d8
f8
13
eb
14
00
de
0b
f6
07
1d
dd
25
fd
04
ef
f5
0b
06
ff
13
07
fc
1e
20
f8
09
0f
e1
0c
f5
12
ed
f0
ec
17
1b
ec
11
01
fd
07
0d
f9
0d
f2
06
0b
13
e0
f1
f4
e6
14
14
eb
e9
06
ff
01
e6
e9
07
de
f8
fe
e3
ed
f2
fe
0c
f9
ec
e8
f3
db
fb
ff
f9
ff
08
dc
f9
f7
05
ee
fa
0e
dc
f5
ea
0d
07
f4
01
01
0e
0c
f4
df
0b
f1
e4
08
fa
eb
f2
fe
f9
16
f3
0e
e8
e2
04
0c
06
f9
05
e7
08
f2
f7
fc
01
dc
01
0c
fe
e4
e7
08
05
08
ec
e0
f9
e7
f1
07
07
04
ef
e9
eb
01
04
04
fd
fd
fd
0a
e3
07
11
e6
d9
10
f4
10
e3
e6
f2
f9
06
ea
fa
ef
df
e8
10
e9
f8
09
f8
f4
e5
f1
13
fd
0d
ed
f2
ed
05
03
05
fd
14
06
e4
02
e2
13
ff
d6
d5
10
e8
18
f5
0c
0d
e0
f3
fa
0e
14
04
18
09
f7
17
21
45
e0
10
4a
38
05
d9
f8
e5
f6
ea
f9
ff
09
1a
0d
29
07
f3
fc
f4
d4
ed
f3
2a
13
18
04
27
1b
1d
f6
f5
f3
e4
d8
cb
0b
2b
01
29
18
2f
0e
09
0b
d5
04
e0
fb
13
02
0e
03
fe
2c
1f
1f
1b
0c
08
22
34
e8
1d
0b
09
0e
1e
3c
17
f8
19
e0
ea
18
0b
11
0d
0d
19
28
33
1c
09
cf
e8
c3
ce
f9
0c
1b
00
17
3d
39
1f
0b
db
e6
d1
c3
e8
17
f9
0f
1d
18
12
28
e5
f6
c2
d3
f0
26
04
0a
15
13
01
19
e8
d6
ec
ba
cf
d4
0b
14
12
00
18
0d
f4
00
e2
e1
de
11
dd
15
48
2f
27
28
15
16
ea
06
06
f8
ee
e4
18
0d
2a
21
2a
f9
05
fc
11
f5
03
17
f5
07
0d
2e
00
23
f7
0e
03
f8
e8
05
00
08
17
1b
f0
16
0f
f8
ee
e4
da
d0
d6
d4
fb
0a
e8
01
f6
fb
e3
eb
dd
df
01
e3
ef
11
33
15
1d
14
0c
0d
f6
08
f7
03
d9
16
0c
f4
09
1c
07
26
28
08
ee
cb
e7
c9
0b
de
db
f9
e2
ef
14
08
0e
d6
de
02
0d
e0
f9
09
e8
e3
ca
e6
fe
e4
f5
ee
0e
00
e9
d5
0a
fd
da
d4
e5
ec
f1
ef
13
01
fa
fa
dd
17
f4
ee
f1
ee
f3
e4
ff
1a
ee
e0
cd
13
20
ef
1d
fe
2c
fd
e4
fc
1e
fc
cd
fc
ec
24
1c
19
03
31
01
10
16
35
f1
f9
1e
0f
0a
1f
0a
2c
37
2f
0a
fe
2d
0d
33
fc
08
0a
e9
27
35
1b
37
f8
ff
04
ef
18
03
e4
0d
15
23
f1
e8
15
13
02
fa
fa
f8
ec
05
1b
01
19
ed
19
02
23
05
ff
fc
f2
00
0c
17
0a
0e
fd
00
eb
09
ec
fc
08
05
0d
06
0d
f6
fd
c6
f2
be
aa
c1
08
20
e9
00
0a
23
f2
f3
ea
e5
c8
bd
da
ec
1e
0a
f5
f8
06
09
26
00
23
f2
f0
e7
fb
38
29
17
e7
1d
07
39
5d
5c
39
1d
07
07
2c
0d
ee
c9
e6
06
50
47
50
1d
1a
ff
0c
d9
fc
d5
ec
e3
e8
0d
10
2c
1a
e9
0e
e4
d2
cf
c6
04
0f
02
12
19
f6
d1
00
e3
d9
dc
e8
00
14
18
f2
e9
ec
de
db
e9
c5
d4
f9
ec
14
ea
52
02
23
e6
f7
13
fa
fa
07
2c
1f
1d
06
e6
2c
2b
01
2d
ea
10
fa
17
f3
33
e3
f1
03
05
fd
f3
06
08
e4
0c
f4
f1
e0
f1
1e
f5
f4
0c
fc
eb
fa
06
eb
f1
dd
e7
e7
03
00
11
f5
f2
ec
fc
09
0a
06
0d
04
00
02
0f
f3
fd
e6
e6
00
05
14
11
07
fe
29
18
1b
05
eb
01
18
04
17
02
07
f8
1f
2c
0e
0c
f9
d2
02
e8
26
11
0e
04
12
ff
f3
d5
e9
ee
e2
e2
01
e0
ea
15
12
27
0b
03
ea
ff
07
de
c7
e1
fa
ea
0c
03
11
fb
fd
06
f6
09
0e
f5
ef
f4
f2
03
e6
fc
fb
de
f9
18
03
fd
0c
f2
ef
fd
02
f3
ed
07
01
e0
16
1a
1d
05
06
10
00
09
f5
0b
01
fe
ec
0a
1b
1b
00
05
0b
08
0a
0c
36
14
16
f1
e4
e1
01
08
f4
f0
ff
15
f7
1c
0e
00
e9
13
05
ff
fc
f3
fa
ac
01
fa
02
16
13
da
13
43
26
06
09
ec
d8
b4
dc
0a
d1
df
dc
fe
f6
f2
f6
ff
08
f9
eb
cf
e0
27
db
e5
f0
0b
0b
f7
21
2a
f0
c5
e1
1d
0e
08
0b
05
0b
f1
25
05
f2
00
dd
1b
19
04
2a
28
2b
0f
c1
03
fc
f4
dc
d1
da
f5
02
f2
0c
00
fd
ff
02
01
ce
d1
c9
f2
da
ff
f5
e3
f8
04
e8
f9
12
ca
c4
fd
10
fe
0a
ef
00
f7
05
47
1a
e9
db
13
15
e4
dc
f1
23
05
08
f7
12
f4
d1
ec
e5
f9
ee
dd
09
f6
04
d6
fd
fc
de
09
04
01
f9
03
05
fd
17
30
22
0a
eb
14
01
17
f6
e0
d5
d8
06
10
0f
32
19
f7
fe
ec
fd
12
e3
16
07
f4
0f
0b
09
08
f3
c7
ed
07
1e
21
0a
f4
dc
f3
e8
13
fe
0b
ef
fe
16
de
20
1a
25
e3
e3
f7
0c
0b
e1
04
05
fb
1a
f0
1d
f9
f0
eb
1a
0b
f9
06
00
e5
11
0a
cd
d1
1c
f0
fe
0f
ed
f0
f6
ee
0d
28
ed
c1
e6
27
d8
fa
1d
06
dc
f8
04
3c
1e
df
e6
fe
15
fa
0c
f5
01
e1
ef
18
21
13
c9
06
17
f5
ec
d5
fd
e6
f0
13
0a
1d
1d
cf
ef
18
fc
fa
e7
08
03
15
06
23
0f
ed
83
dc
f9
0c
fd
eb
0f
f1
17
11
0a
ec
fe
9b
f1
14
e9
f3
fe
05
f4
f0
1c
0f
17
0b
eb
f9
19
09
df
0c
ec
15
0d
e1
1c
2a
09
d0
fd
e0
f7
e4
0f
e9
4e
33
0c
14
21
20
02
ec
cb
11
04
24
f8
39
39
f2
35
e6
f4
f6
01
1a
11
fe
0b
d1
23
11
2b
f7
0f
19
0f
e0
02
10
fd
ef
12
f5
ea
ff
1c
15
de
cb
c1
1c
e1
0c
c3
dd
fa
0a
18
04
2b
07
c5
e1
f1
1d
df
05
13
10
f3
0c
08
08
03
dc
c4
f8
e2
f5
fc
f7
04
f1
e7
03
ec
e6
dd
35
ca
12
00
d6
fa
0d
df
e9
05
f4
f1
f0
ca
fa
01
0c
0d
1a
ea
22
f1
f2
02
17
f6
bd
14
10
f1
db
2c
0d
21
3d
0d
0b
ea
c6
14
27
f8
27
d0
04
19
20
f9
ff
0c
10
cd
fc
0a
15
1b
1a
10
0f
03
f2
ff
0d
28
0a
27
34
0c
f4
fe
18
0b
ff
fa
0a
f5
34
f7
e3
15
ef
0a
2e
32
12
10
18
f0
f1
e6
1b
d8
0a
0d
15
07
e2
1a
04
0d
cb
e4
f7
01
0c
fa
f8
07
0c
d2
fd
11
1e
08
16
ef
16
ee
01
15
0a
0e
d0
11
11
ef
e4
df
f5
0c
03
12
f3
f6
db
13
04
14
f0
fb
dd
03
fb
e6
f6
e5
ee
eb
17
fa
f1
ef
ed
fb
fc
12
0a
01
19
03
ef
01
04
f3
d4
03
0e
30
fe
08
00
20
09
eb
07
11
0b
e1
14
27
13
f4
fc
03
f1
fe
03
0c
eb
e8
e1
06
23
1f
d9
e6
00
e9
e0
06
1e
ef
f8
03
10
18
f2
de
d9
14
0b
f2
1c
05
0f
e6
13
f2
14
ff
f7
db
0f
fc
09
02
e6
0a
fa
00
fe
00
00
17
19
06
09
eb
f3
1b
f8
26
e0
04
06
09
f8
fd
fa
0b
df
12
e9
ed
ef
05
ea
e1
1e
04
f6
ef
f4
1a
11
ff
f4
0a
13
e8
ee
e5
0d
f6
e3
fa
f8
de
f7
02
0d
0b
da
e9
04
e5
f8
23
e6
06
fd
12
0c
f9
e7
f1
ce
ed
06
f4
06
1e
f5
e4
f0
12
01
df
0b
d6
da
ec
e1
11
fa
0c
0f
f1
10
e4
dd
f1
db
f9
0b
db
ea
e6
f8
11
f9
07
07
0f
f8
f8
d6
fc
0c
f9
14
09
00
15
0a
f0
11
1b
e0
04
d8
dc
fa
20
ef
e4
fc
eb
0c
e2
e3
ec
f1
e5
22
35
16
dc
05
04
09
0d
fd
0a
05
09
db
0e
0d
d2
f4
ec
ea
ea
f5
02
00
18
0d
08
10
0b
ce
11
24
0d
15
fd
09
d2
fe
0a
06
12
e0
fc
1d
15
05
0a
ed
e3
06
f6
f0
e1
e6
f1
ea
07
0f
ea
16
f2
12
fd
30
1e
18
f6
e5
05
10
0b
05
fc
13
15
01
01
f3
1c
ef
f0
10
0f
f6
e0
f1
fb
0b
0c
0a
17
e3
eb
e3
f2
fe
ed
01
f8
12
dd
19
1a
f0
12
f1
04
09
fc
f8
ef
04
09
ed
0f
10
fd
dd
22
0e
ee
f0
13
12
ea
eb
06
09
04
e8
0b
f1
f5
10
f0
ff
f5
03
0b
ec
12
f1
07
0b
ee
ed
d1
f7
e4
f2
0f
0a
00
e2
01
0c
28
e6
02
d5
f1
e3
0c
f8
fb
d8
fb
04
12
ed
e1
e5
04
e2
0f
dc
0f
fd
f9
f2
02
de
f1
d7
fa
f3
18
ec
01
eb
02
f6
f2
f1
0b
fd
e8
f8
ef
0d
01
f0
08
01
0d
0a
df
e0
dc
e7
e9
16
21
e5
10
17
ee
e9
ed
f1
f5
fe
05
ee
0f
fe
05
fc
f4
e0
0c
ed
14
0e
f3
14
d8
e6
f7
e6
ec
dd
ee
fb
f4
08
00
0c
18
fc
fc
ff
f2
e5
e0
0d
ec
eb
dd
d6
f7
f5
f1
09
2e
fe
01
09
f9
fa
04
ce
f9
0d
f3
09
fb
31
03
e3
02
04
0a
d9
ec
14
dc
2d
09
25
0f
12
ed
eb
0e
fa
e4
e3
d5
fc
ea
16
fe
f1
d6
03
11
f1
d9
f4
db
fe
1e
f5
18
d6
0b
06
ec
ef
04
07
f5
08
0d
f6
f5
09
09
0b
d9
e6
ec
0c
10
12
ff
03
e5
eb
1a
03
03
06
01
07
01
06
14
1d
1d
1d
21
18
f1
f5
1b
f7
dd
fc
e5
f8
1e
23
1e
0c
ef
06
00
ff
19
fb
16
f6
e8
09
06
26
ef
fd
e7
f9
18
13
e2
ef
f1
01
f3
0e
0f
e0
0c
0f
06
f5
06
f5
e8
12
02
1f
1a
f9
0b
fd
d5
08
10
ee
04
0f
16
0a
0e
14
08
e6
e8
f2
14
05
ff
ec
fc
ea
06
f8
e3
f3
e9
f6
1d
05
09
f6
04
ec
ea
e4
02
07
fa
f1
0f
fd
0a
10
07
00
03
cf
01
0c
00
fd
fa
02
e8
fe
06
f6
0e
08
f9
fb
fa
03
e6
eb
fb
e9
12
f5
15
f0
ea
f9
1a
f0
df
1d
f7
e8
dc
de
0b
f0
e2
13
e1
f0
fd
02
fa
15
e8
e1
fc
fb
02
fe
f4
e9
14
df
0a
05
ed
f0
e1
d1
04
02
e2
10
de
ff
ef
e9
e3
d7
d7
15
f1
e4
05
f9
fe
02
0d
fa
0d
0a
07
fb
e5
f4
17
f4
0f
03
e8
f4
e4
ec
e2
f3
ed
ff
f7
06
f7
11
fe
f1
ef
f5
e8
f4
d4
fa
12
ec
12
e9
ee
11
09
fa
17
df
f8
e9
02
e4
fc
eb
f5
e0
df
eb
f7
ea
be
01
23
31
0e
f9
16
ff
04
c1
ee
ce
f4
eb
f7
0b
0c
13
1b
0a
ea
f7
ec
cf
c2
e3
ea
e1
03
35
34
3b
13
3c
da
c7
df
d1
a7
d0
ea
ef
28
36
41
50
68
f8
f4
dd
11
ea
df
f3
fe
fd
f8
09
4f
60
d4
05
15
1f
16
28
19
df
ed
04
fd
29
06
dd
22
26
27
30
48
33
04
fb
22
00
ed
d6
09
f3
f8
27
27
38
08
24
27
01
eb
1b
be
fc
0b
29
0d
1c
05
1a
e6
f5
01
ea
0b
a9
f6
f1
07
fe
05
04
f0
da
f5
fb
1b
00
02
01
14
f4
12
00
0c
04
fd
01
fd
ed
19
09
ea
e0
ec
eb
09
e8
00
ff
02
04
29
25
fd
f8
21
f3
b3
c5
f0
ee
14
c9
1a
db
1a
f5
dc
00
fb
01
1c
07
15
0f
14
f1
f8
f4
ed
10
0c
1f
14
10
08
fc
34
2c
2f
26
35
36
e5
09
f3
f1
07
04
16
1d
28
1f
1d
f2
20
e8
0d
e4
f5
05
08
ee
fe
f1
c4
da
da
0c
f7
05
dd
f1
08
ef
f7
ee
d8
d3
f0
00
fc
e5
db
ed
f0
f4
c0
f1
f7
de
f3
08
16
1b
e5
ee
ec
de
e1
ef
ed
e7
ee
ee
fd
df
22
04
07
0c
05
d2
b4
f0
db
18
00
f2
0b
06
f3
0b
e8
09
f9
01
e8
f0
10
f8
f0
13
db
12
f5
2b
16
29
fc
06
01
f9
19
26
f3
00
fd
ff
f4
ec
0e
11
24
1a
14
28
24
ed
f9
0f
ea
ed
da
da
14
f0
eb
cb
dd
fb
ef
05
0f
ef
fd
1d
f3
f0
f1
0c
14
ef
f4
07
e4
0b
e9
f0
e5
2e
09
f7
00
0a
ed
c8
cc
e6
fb
ea
0a
11
fc
1e
f7
e1
fb
0a
ec
02
03
ec
1a
f5
1d
0c
2e
34
fc
de
e4
f8
ef
28
d9
21
12
1c
32
39
35
03
06
f3
d2
d3
2a
d7
07
09
23
02
43
2b
31
13
21
18
0e
08
fa
20
ec
1c
0b
f8
20
42
29
09
0f
fb
1d
f1
0c
33
15
21
01
fd
30
10
18
fa
09
0c
f2
0c
ed
14
22
ec
f7
00
00
fa
01
00
f6
f2
f7
0f
08
00
fc
ff
14
07
f9
d4
f2
ee
f7
11
0e
06
03
fd
fd
fa
02
03
ec
e9
04
05
d5
00
f9
e7
f7
02
13
fe
25
04
13
f9
10
fb
03
05
24
08
f3
0e
0b
1b
02
c4
00
f0
1d
e7
ea
f7
e4
f7
f0
d4
f8
d6
dd
d7
e8
0c
f3
fa
0b
12
fa
ff
ea
f4
fe
f9
ef
f1
2a
08
1f
21
00
e5
eb
0a
0c
1d
1b
08
0c
10
1c
0f
23
05
eb
e4
e8
f7
f4
1f
04
f4
1a
27
2a
1d
09
f2
07
ff
dd
bd
fd
2b
ed
f1
0e
02
16
f8
db
15
ea
f0
f5
08
18
0b
fa
e7
f4
0d
00
e4
f1
e4
f2
f3
06
17
cf
cc
03
fb
f9
ff
e6
ff
f6
03
06
ee
25
df
e3
da
fd
05
e3
ea
05
ff
0e
ee
0a
0d
0d
fa
ef
e5
f3
ec
f8
02
f0
f2
0f
f4
10
13
1e
04
0a
05
f9
ec
f1
ff
0c
0b
1a
17
12
fd
01
12
05
17
ea
02
03
f2
0d
ed
ea
17
d2
f3
ef
01
08
d6
eb
f9
db
e9
d1
0e
16
03
fc
15
15
2e
fc
f3
06
1e
1c
fb
08
00
fc
e1
fe
03
2c
29
11
23
13
10
1b
f7
19
ef
f4
f4
07
0d
28
07
2d
41
f3
e9
10
1d
1c
0e
1f
1e
31
2f
3e
2b
27
fc
02
e9
f9
eb
06
f4
1b
05
0a
11
26
1e
ff
fb
de
dc
03
09
f2
f6
e9
03
16
15
0f
fd
08
09
0c
ff
01
fd
1d
0c
23
14
10
1b
fb
16
f1
f4
e6
fc
0e
fe
01
ed
05
23
09
f7
e3
fe
f1
29
df
fe
fb
e5
e9
fb
f9
ec
fe
fc
1c
c1
fd
ed
dc
eb
e5
f4
e7
e9
ef
ea
f5
26
06
e9
fd
f4
fb
04
10
e3
e0
e1
f3
fe
ff
30
0b
f7
f8
02
04
fe
e9
10
05
19
0e
e5
fe
f2
0c
f6
14
04
05
15
f4
fe
f5
27
d5
2b
20
1d
1e
13
1f
df
ff
f2
e8
09
e5
fe
fe
00
02
f0
ff
f4
d8
ed
cf
e8
d3
18
f3
f9
fe
fc
02
04
09
f2
df
ec
1c
04
08
f9
f1
24
09
24
21
0c
fc
e5
05
0d
13
fa
26
11
3a
24
2a
ec
fa
16
f6
0e
fd
06
29
00
07
09
f4
db
e9
f0
0c
08
02
19
09
d6
11
07
db
e8
dd
cc
03
f7
00
eb
00
e4
03
06
03
11
15
01
11
22
fb
07
02
01
fd
0b
e3
e4
1a
26
21
41
15
11
f9
f6
f2
fc
f6
f5
00
0a
04
14
05
1f
19
09
0b
fc
0f
34
fd
08
0f
f2
ec
00
08
15
19
ee
f5
00
10
e4
cb
ef
d8
ed
fd
e6
fd
e0
de
0c
15
f4
07
18
fd
0b
24
05
00
18
20
f1
1d
2d
20
eb
d6
ef
20
17
f4
06
13
e4
04
04
c1
e0
ea
c4
fe
c7
f8
cf
e1
0e
f6
06
07
0a
e5
03
cb
e4
ea
b3
cc
b7
e4
f7
08
1f
18
0a
10
06
0f
03
f1
cf
df
05
1d
30
1f
32
3e
38
03
fb
ef
e9
08
41
3c
35
11
2f
14
2e
15
14
04
17
3c
56
52
2c
c2
ee
ed
dd
0c
e8
03
0a
23
2e
2f
36
d8
cb
e1
d2
f5
e3
f5
f9
fc
01
13
ef
ef
b4
1d
23
f6
1a
f6
da
02
ea
fb
fb
e9
d9
eb
23
1c
25
24
f0
dd
06
ee
09
14
04
17
36
41
0b
ee
f9
09
d3
ea
e6
f2
f1
28
2d
46
0c
10
0d
01
29
ea
04
ff
15
01
07
03
25
14
fc
e4
f3
f1
e9
f9
01
05
19
f8
fd
eb
ff
27
29
fe
35
e7
20
15
1a
ef
15
1a
1a
eb
13
f3
f1
f8
f6
04
e8
00
e4
00
f9
e7
e6
fa
f5
fc
ff
e6
fd
ed
14
16
fd
14
fe
f6
f7
14
fa
d8
d8
e8
10
0b
03
f7
04
17
02
10
fd
12
1b
1c
05
1f
1b
fd
19
16
13
22
1b
14
1e
21
2d
fc
13
0d
15
1e
2e
32
1b
ff
0c
12
ff
1a
ee
f7
03
04
fc
19
11
12
ee
01
f1
12
0a
03
0d
15
13
21
05
01
f6
fb
f3
fd
09
dc
17
12
08
09
0c
0b
0f
03
e8
eb
18
f8
19
de
f8
11
0a
1b
fd
ea
ff
06
06
fd
22
f3
06
2b
f0
0e
f9
03
eb
0f
ff
fb
2b
01
dd
ef
ec
0a
10
fb
12
ff
ea
0b
0b
09
10
11
de
db
01
07
07
fe
09
22
30
2f
f8
2f
f6
e1
0a
e4
db
01
29
e6
01
e3
f9
f1
11
05
ec
0d
00
1f
36
2c
e5
f0
f6
ed
12
fb
0a
3e
29
18
fb
e6
df
f2
c7
e8
12
e2
04
f5
01
10
1a
f6
de
d6
d4
c8
cc
f4
10
15
08
ee
e3
f1
ef
eb
c3
ef
df
de
ea
fe
ea
00
16
e7
e7
eb
db
03
0b
09
ea
1b
cf
16
1b
25
0b
f2
f2
09
01
ee
de
0d
c6
cd
fe
02
fb
d6
f4
07
00
fc
0a
0c
df
c0
fb
ef
13
0b
d9
0d
16
e2
f4
07
f4
00
e4
dd
16
e2
10
e6
06
00
01
e0
f6
f5
e7
e0
dd
04
0f
eb
12
f6
fe
0b
f0
d4
04
00
07
02
07
02
14
fd
03
0b
e8
ef
d2
d7
d5
e8
1c
e9
42
dd
ed
d8
1b
08
f7
02
f7
fc
05
13
e9
22
0a
f2
f4
ed
17
f4
d9
ff
f9
f5
07
0a
f1
2f
f0
16
ee
e0
02
05
f1
06
01
08
0b
10
fd
01
e3
ef
ea
ea
da
f5
0d
f9
18
15
25
f9
03
f4
d4
07
e4
f9
13
0b
e3
df
08
ef
0c
e8
fb
ef
ea
d1
0f
25
0a
14
f2
12
fa
ff
e6
e9
00
e9
14
1c
fb
f3
f9
fc
e9
03
11
05
f2
02
1d
1c
eb
00
0d
f0
04
e2
dd
02
e0
0e
0f
f2
15
e0
df
fc
00
e9
e2
05
e5
e0
10
00
12
0a
e4
df
fa
f6
10
0c
0e
fa
0c
12
f0
e9
ef
04
e9
00
08
10
00
ed
e4
0b
fa
01
0b
00
f5
06
10
eb
02
fb
f4
e1
07
0b
24
ed
f3
10
0d
ff
f6
f9
fa
ef
01
fd
f5
ce
e1
05
0f
f4
e7
e8
1a
06
fa
10
2b
41
09
25
24
08
e5
02
10
0a
0f
0c
2d
51
ff
0d
0f
d6
0a
2d
f2
02
05
1b
fd
32
f0
16
e4
ff
e2
21
08
df
f3
1c
10
20
e5
e7
13
01
dd
de
dd
fc
f5
e3
06
f3
02
e3
02
ea
f7
b2
c0
24
ff
e4
fe
04
eb
18
1d
03
0d
e2
0e
0f
ef
f7
0d
ee
cf
1f
f5
1f
f1
f0
e7
f3
df
c1
f8
f3
ef
fe
f6
0a
16
e2
f5
e0
1c
0b
f6
f3
ce
ea
dc
e4
ee
0a
f6
20
f8
3d
20
fa
ed
e0
dc
e5
09
df
ec
07
18
be
03
ec
06
e5
d0
f3
0f
f9
1e
fa
19
e6
fc
ec
33
1a
ff
e7
ee
ff
11
fe
f0
fe
fb
18
fd
27
16
d7
fe
f1
e5
20
4e
e8
e2
0e
08
f3
e8
12
ec
fa
25
18
1d
35
e6
f0
17
e5
fc
fd
ed
f4
0f
11
dc
ff
fd
1e
fa
f4
07
ef
10
d9
f0
08
e0
1d
07
10
f5
e8
0e
fc
e3
0b
fe
05
05
13
0e
f2
0d
12
01
fd
ef
f8
ef
e5
07
0c
13
05
e3
12
f6
fc
f7
e1
00
d8
f1
20
0f
09
ea
01
0d
f8
ea
d6
f8
f4
fb
10
14
0e
16
e8
07
08
07
fb
f9
ec
04
0f
13
03
f7
0a
08
f4
e7
02
f4
09
f3
19
f3
15
df
f2
0b
07
08
ef
00
f4
f9
fc
0e
05
fc
f2
eb
fc
0d
fc
da
fd
e6
01
14
08
fc
e3
ed
ec
03
ff
f0
e3
e0
ee
05
13
0a
f3
0f
de
16
f7
0b
f7
01
12
06
fb
27
ef
08
0c
fe
e5
15
ee
fd
0e
f6
dc
06
04
ec
0f
06
0c
f8
f9
06
f0
11
07
e0
f3
10
10
07
f3
05
09
f9
ec
16
04
10
f1
3d
22
fb
bb
ec
fa
12
0c
07
17
0d
08
14
2a
19
1c
06
2a
14
47
1a
25
24
0f
01
03
f7
f5
cc
f8
f6
e4
ea
11
bf
d8
f8
ef
da
0e
1b
f2
22
09
e3
d8
e3
ce
f6
eb
f0
0c
08
f6
ee
0d
07
0b
e8
c5
f5
01
e4
06
fe
ff
dd
ea
1f
da
f0
f7
2b
39
00
ef
e9
15
e2
e8
f9
e9
e4
f2
09
0a
1d
13
04
0a
fb
01
ef
11
d4
c1
de
e7
13
32
ff
e8
1a
e3
e8
ff
f9
15
fb
3a
15
11
09
ff
cf
26
f7
06
f9
c9
f2
22
2e
00
20
07
f3
0f
e2
05
0b
15
fd
09
ef
e5
ee
c0
fe
0e
02
08
f7
01
ec
fc
e3
f1
f2
fc
fb
eb
03
e1
eb
10
10
03
1a
1a
da
d6
e9
09
1c
17
20
db
28
15
16
fc
f9
05
f8
0f
f7
17
09
07
e4
ee
04
fe
15
00
18
d0
19
19
0e
f1
f6
07
0d
07
18
e8
ee
c5
ee
ec
f5
ec
f1
11
dc
04
f1
fd
e2
16
dd
f9
e8
09
f7
ff
e2
03
ef
09
fb
e3
11
fa
f9
0a
ed
ee
00
1e
ef
e7
01
fb
09
08
ed
14
03
09
03
f4
ed
fe
ea
f1
fe
ee
f4
08
f5
f7
f9
04
fd
e2
e8
df
fc
10
02
1a
fd
05
f2
09
fb
ef
e7
01
f2
fb
17
e9
e5
e6
16
ff
eb
f0
e4
13
fd
03
0a
23
13
21
e5
05
03
fa
0b
f7
f2
16
12
02
dc
f8
da
ee
f3
04
f0
e0
ee
0f
12
f0
0e
07
04
e5
12
0a
18
ff
07
fc
f8
f8
f9
ec
0a
f6
ed
fb
ee
e6
e5
f1
f3
0c
ee
fd
16
2e
0c
12
17
28
0a
03
f5
08
04
d8
0a
0e
d3
e7
e4
ef
ea
17
02
e5
e1
0f
f8
e3
0f
09
fc
1c
fd
2d
12
eb
cd
cc
11
d6
f7
ec
fa
09
0c
1d
f3
0f
1b
ec
e7
dc
f9
17
0a
1d
f6
16
eb
fa
f9
12
e7
31
13
d4
e8
16
07
18
0d
ea
07
00
fc
09
08
12
0f
fa
e3
e6
23
15
e6
0f
04
fd
28
2c
13
fa
0a
ed
ef
0a
dd
c8
eb
fb
e5
fa
1f
e3
09
e8
05
1f
31
05
da
03
e4
de
06
c0
f9
f5
07
f5
1b
d8
00
f4
0a
02
17
f2
f8
e9
e3
03
01
23
0d
0b
da
f6
02
de
23
06
ec
eb
fd
21
0b
d7
cd
ec
ef
0f
e2
f8
e5
03
ed
0e
f5
e3
0c
ee
f6
f4
fc
10
e6
eb
f7
0d
14
00
34
1b
21
05
10
00
f2
24
e8
e7
05
06
16
17
00
15
e4
ec
da
e0
e0
f1
f5
e6
07
f5
f7
09
f6
fc
df
df
de
01
cb
0c
e8
f7
eb
fc
fc
f4
08
0c
00
e0
fe
e4
fe
ff
0d
0d
f2
e0
f3
06
10
f2
1a
e0
fa
2e
fe
11
f0
f4
e0
fe
ef
17
12
11
eb
1a
23
0e
fe
e8
08
e7
fd
e5
f8
03
1a
1f
29
11
fd
e9
fb
f0
12
ee
01
f4
12
fc
ec
12
f9
e4
de
e1
2e
df
11
16
0c
01
eb
e2
ef
0e
ec
dd
e0
19
02
ee
ee
14
ed
fc
e9
d6
02
06
04
fa
1d
fc
fb
0f
00
e4
05
f4
fd
0b
14
16
f9
d9
04
fe
db
e1
1a
fb
00
09
f5
09
f8
11
fd
f1
e9
f7
25
fc
db
ef
0b
13
18
e7
13
13
e0
dc
10
0a
fd
ea
eb
ed
08
f7
c8
f3
0c
f4
eb
df
f4
1c
eb
ea
f3
ff
00
ed
0c
f5
d3
be
c7
e3
f1
db
ea
30
1c
f3
e7
dd
fc
1f
0a
0f
ea
db
e3
17
f5
ef
04
02
12
34
28
0f
f2
f7
c8
f6
18
f5
0b
f1
0a
3d
25
e9
ff
0b
e9
05
da
cf
f2
49
d7
ff
06
01
e0
21
0a
0b
0f
e2
10
37
1e
f8
03
e1
fc
21
f4
1f
18
06
0e
04
38
2c
f6
f0
f1
15
0b
0b
1a
10
11
f4
12
15
09
07
0e
d2
bf
ff
f8
f0
f6
ea
07
f2
d7
e3
16
ec
fb
f1
e1
f3
09
ff
ec
15
0e
e1
fe
e5
e1
d7
f9
f2
fb
e8
fe
eb
f5
f9
e3
e1
ea
fd
d6
f8
f8
ef
fd
08
f0
ca
d3
08
f4
ff
e9
df
25
fa
e1
d4
ed
ea
dc
e0
04
f1
ef
17
08
12
ce
eb
d6
d3
e7
e6
e0
fc
02
dd
09
f4
eb
17
eb
ed
be
07
de
f7
14
f9
11
11
23
d3
17
0a
f4
d9
fd
10
1e
24
19
f7
26
e2
06
18
fa
e8
1a
03
ef
17
1e
22
e5
09
1a
02
29
22
07
da
f1
ea
f7
1f
2c
03
f3
f6
11
05
23
f5
00
0b
01
0a
17
03
e7
06
f6
ee
12
03
d6
e6
d4
fa
e7
11
1a
f3
cf
e1
f6
f7
da
d2
e3
04
e6
e6
f2
e2
e1
f1
fa
16
fd
e5
f7
15
0b
f7
d0
07
0b
f5
e3
03
06
f9
02
eb
db
0d
e4
e7
dd
ef
ed
1b
0b
05
0b
16
f0
22
ec
ef
d7
d1
f8
fe
1e
19
02
e2
05
ff
15
e4
e0
ff
01
1d
2a
2b
13
b0
f9
04
e9
d6
09
f9
d4
ce
0d
02
e4
f9
17
28
34
12
10
ca
f1
cd
d9
08
13
0e
fa
f5
1d
31
29
31
f6
f5
1d
cb
eb
0a
01
c2
ff
27
15
14
23
26
fa
1c
09
f8
ff
21
16
0e
04
17
04
21
1a
f6
08
f8
41
05
2a
1b
f7
f1
12
08
30
f9
c3
fa
00
05
f4
ee
fc
df
b7
f3
cc
f3
07
c8
f4
13
0d
0d
f9
f0
04
0a
ff
0a
b5
c5
d0
db
08
0b
04
fc
e7
fb
1b
e2
0f
d3
f5
f1
ac
f3
17
0d
e5
d4
f7
f5
d0
c9
10
ec
b4
c1
d5
f0
17
0b
1e
20
06
e3
dc
f6
e7
f4
ea
e7
24
06
13
e6
d7
d8
f8
ee
c8
0a
da
2b
ed
27
12
ee
f7
e5
f4
fe
e5
15
d8
e1
d2
f1
f2
15
ea
cf
f8
d2
fc
fb
f7
14
db
f4
f1
00
f1
15
1c
15
e7
f7
e7
da
c9
e8
fe
02
11
04
04
10
0f
17
f0
dc
ec
d7
fd
d4
02
e3
ea
0f
02
fd
1c
00
16
e2
e8
fd
fd
0c
f1
f4
25
01
11
16
11
14
04
08
f3
f6
12
38
f0
00
07
fe
0e
15
e4
f1
02
ec
01
23
14
da
09
ee
f5
05
17
fc
f0
ee
e5
21
13
33
0e
01
d8
e9
1e
f7
fa
07
fd
0b
fa
16
33
dc
e8
cf
fb
16
f3
dc
e5
dc
f3
e9
03
08
e1
fa
fb
e2
fc
de
ff
fc
ee
ff
e9
f5
0e
f2
ec
f6
f5
fd
f3
16
df
04
f7
d3
e7
10
e5
eb
f5
ee
fa
f6
ed
f2
fa
f2
c6
d9
11
19
ed
ed
15
19
f4
43
f8
f3
f2
07
12
15
09
e7
27
1c
f2
1f
1e
28
09
ed
fd
0e
23
1c
05
e6
fe
20
01
ec
ee
c5
e4
b1
f5
fd
f7
08
ef
f4
0a
fb
fa
c3
dd
e8
18
22
25
f9
05
09
0e
16
0b
e6
d5
09
06
1c
02
f6
c5
de
f7
0f
fd
de
de
0a
10
0e
02
39
36
fa
ed
eb
cf
c9
f5
ec
fc
e2
f2
da
00
01
1b
df
da
e8
d8
e6
03
e1
f8
01
e8
f9
2f
08
16
f5
cc
07
02
09
de
de
1e
fa
fe
12
1f
19
ff
cc
f5
06
fc
26
02
13
1b
11
56
06
eb
eb
e7
0d
00
1f
00
23
09
11
35
3c
ec
22
04
01
fa
f2
04
d0
fe
0d
f7
f3
e9
01
0d
04
fd
fb
c5
c1
e7
f2
13
2f
1d
f4
35
02
fc
0b
31
21
20
12
f6
ea
fe
03
42
06
f0
f5
fe
13
f1
19
11
fc
e5
fe
06
14
2a
df
00
ef
0c
c5
f7
f1
fd
0e
05
df
e8
04
0a
fc
fe
f2
b8
1f
fe
e8
d9
d5
c6
16
f8
e5
fd
ff
07
ee
3f
fb
c8
ac
e1
fe
0d
09
fa
d6
ff
0f
2f
0d
d2
db
d7
00
0f
fc
09
ea
06
0b
29
2b
e2
b9
d8
e7
05
04
fb
ef
ff
02
0a
0a
1c
bc
da
e4
46
2e
06
e9
14
22
0b
0d
f6
ef
af
05
0e
3e
0e
eb
ec
1c
fa
ef
05
06
cd
e9
06
31
1e
19
e9
fe
db
03
14
20
f7
a1
b6
d7
0e
21
eb
eb
f6
1b
20
0e
f4
f6
bc
d4
f4
10
f9
da
11
18
14
e0
fa
f3
f1
04
f3
fe
d6
0b
ed
f4
04
22
09
1a
eb
fa
37
22
1b
29
19
15
04
45
0b
45
17
0e
0b
10
28
19
1a
0d
05
08
30
21
ee
19
0f
f2
0d
22
e7
ef
f5
d1
0a
0d
1a
17
df
e9
0c
05
17
19
ee
de
bb
08
04
0c
f7
01
ec
3c
e2
06
15
ef
f0
19
ea
37
f7
fd
f8
07
d0
c7
14
1c
d9
d5
bb
19
0c
e4
fc
da
ed
d0
eb
f0
08
e8
d3
ee
ed
14
fc
cf
ee
21
cb
da
13
cd
b3
12
07
14
e1
fc
27
1c
0d
12
fc
df
ea
16
20
26
fb
fc
f9
0b
06
11
e3
02
1c
41
ee
f0
02
31
45
06
fa
05
02
16
0a
f5
17
e4
d4
0b
09
28
ef
2a
13
14
0b
1b
06
ee
10
f4
c2
f6
3b
32
13
fa
16
f3
bc
00
e7
f8
31
f3
18
02
10
05
00
1f
0b
20
20
05
19
0c
e9
29
17
1b
f6
fd
0a
19
08
06
25
0c
ec
07
f9
33
22
e0
f5
f7
0f
f8
fd
f9
eb
00
f1
05
19
17
d7
fe
18
01
e6
fe
0d
e7
f3
fa
ca
24
fc
f2
e4
e1
fc
f9
17
01
01
e9
f0
e9
23
ea
02
c8
f6
fa
1a
23
fa
d3
f7
dd
e3
ef
00
f9
f6
1c
36
25
d5
d5
cb
e2
f4
06
00
e1
f5
1f
18
2a
f9
d5
cf
d2
11
21
e0
dd
28
04
03
27
16
14
cc
f5
13
15
08
cd
00
06
11
0a
24
0a
f2
06
06
06
ec
0b
f0
02
f6
e8
12
fa
fb
f6
fa
e0
f9
f1
ee
e8
32
df
2c
17
f8
0d
e4
e2
de
1c
14
e5
f7
23
f1
f9
f8
fa
d8
d8
f7
f7
13
02
f9
04
04
ed
ea
05
f9
dc
db
eb
0a
e7
16
08
0b
08
fe
08
ed
25
0b
ee
e4
00
d5
d3
f2
f0
f1
0b
0b
06
1c
d2
ce
bf
c2
e2
f0
0e
fe
ef
05
ec
d8
00
ea
d5
ae
a2
be
fd
05
f1
01
09
03
18
ee
09
dc
e4
b5
db
03
0a
ef
0a
0d
ef
e2
eb
04
ef
d2
94
0b
f3
fd
09
fd
1b
1a
d4
03
f2
f3
d0
02
ea
0b
08
f8
de
0d
06
05
24
e3
d5
03
cf
e3
f6
01
15
20
fd
0e
14
22
ed
18
ff
fb
f7
39
3e
16
1e
3f
1f
ea
ec
00
f3
09
e0
f0
12
22
3b
fe
12
ff
14
e9
cd
09
ed
0e
f1
dc
a9
de
00
e2
e1
e4
d5
e7
e9
18
24
13
25
e9
f8
13
f1
f6
df
0b
27
f8
ff
03
db
fc
fd
06
f5
2c
22
0e
1f
eb
e3
f7
09
e5
26
ef
f9
01
18
ef
f1
08
28
2a
21
1c
02
0e
e0
f7
0f
05
de
ef
d5
17
0b
14
06
14
24
ff
05
fa
0c
11
f7
02
f2
14
24
03
ff
07
f6
e4
f5
04
0b
f7
d4
ec
14
fd
c5
24
f2
e4
0c
f0
16
10
e1
f5
1d
1d
e6
d9
2d
04
ee
f2
fe
f7
00
0c
ee
1b
ee
fc
21
ff
fa
f0
fd
13
df
fd
12
05
f8
05
f0
0c
f7
f9
f9
ff
11
22
23
01
09
d9
f5
e1
de
f6
f6
f9
f6
03
39
f2
15
fb
e6
e8
f7
dc
d2
de
df
cf
ec
c5
fe
ee
f0
16
e8
06
f0
13
0b
42
00
13
12
fe
e2
ff
f5
fc
16
fb
fd
02
06
f3
f5
f5
fc
ef
e9
d6
f9
f2
0e
01
ca
02
ee
0e
3b
35
12
04
07
f0
14
06
ec
13
fd
10
2a
24
14
26
f0
11
1c
24
08
0d
ff
d7
07
fc
26
0b
15
f2
f4
03
f4
0f
02
f7
02
f8
e4
02
0a
d9
ec
29
20
02
f3
17
d7
e5
13
d9
1a
21
16
fc
4c
09
f7
1b
02
fa
e2
01
14
08
fa
2d
10
0b
cf
dd
04
07
04
ef
f5
e7
1e
13
ef
09
0e
03
21
e0
d5
db
0d
f8
0b
f8
fe
de
f9
d5
ff
ed
fe
e3
0d
1b
0b
05
fb
10
0f
f8
07
27
d1
01
01
f2
c3
04
1b
34
f9
f3
ec
ea
07
0d
f3
13
33
de
f5
f0
1b
fa
02
01
fc
d9
33
02
2e
2c
2e
0b
2e
0f
e4
fc
e7
0b
11
40
5a
08
04
fd
10
1a
1d
00
f1
18
ed
f7
29
03
f1
f3
11
13
27
1d
23
e9
f1
04
e8
e1
f5
08
03
e0
f3
21
06
f4
d3
fd
07
10
fa
f6
f3
10
d0
f7
f8
06
f1
07
e8
18
fc
f1
ef
f9
00
f6
ee
ec
fe
e8
ee
df
f2
03
da
fe
eb
21
01
0d
06
01
f9
11
fe
0e
12
ec
e2
fc
e4
f7
e1
fd
ff
15
e9
02
17
14
21
17
ec
f3
00
ef
04
fe
07
05
0b
0c
28
03
10
fd
ee
e8
dc
1d
01
19
0a
f6
ed
f2
fe
0b
04
d7
f8
09
01
03
05
0c
fb
f6
19
0b
14
ed
d4
f0
f8
15
2d
e3
20
03
e0
1e
05
04
e0
da
e2
fe
f9
02
fb
16
f0
d9
17
2f
1a
08
f4
27
e4
fe
d5
e2
05
fc
ed
10
25
fb
16
db
0b
24
19
03
f2
09
02
e6
0d
36
d7
f2
ad
e7
16
ff
16
0d
f5
e9
de
d5
fb
fb
ea
e4
00
0e
f4
f4
f1
25
f1
48
38
32
f8
e9
23
26
14
f0
16
03
ff
2d
3b
2c
1b
1a
27
17
02
1b
29
ff
f8
ff
1f
3e
2b
1e
31
21
14
02
f8
16
fa
06
24
0d
35
1a
34
19
33
1f
12
1a
1a
ee
0f
3b
21
2a
0a
ff
20
1a
f7
02
1d
09
e3
06
f5
0c
11
03
15
1a
21
11
11
1f
0a
0a
02
02
11
1d
fc
03
1d
18
09
11
03
04
05
ed
17
2e
38
31
1e
f4
e8
f1
ed
f7
07
0a
21
1f
13
09
2a
03
09
ff
0e
f8
00
d3
1d
24
1b
18
1a
07
16
2a
0e
fe
0f
f8
05
f1
41
fa
03
fd
f3
ff
06
04
f4
f4
1e
34
14
e1
08
10
04
27
05
29
15
23
0d
2f
fd
01
07
08
07
fd
2e
23
2d
0f
00
ec
e2
08
1a
05
f4
fb
26
08
ff
04
0f
13
fc
0a
08
16
e9
01
04
f1
16
03
eb
f3
03
0d
f6
1d
e5
12
01
0b
09
f6
cf
00
ec
00
f9
06
f3
f9
00
05
10
e3
e1
e7
f5
ef
da
e4
e3
0d
ea
0f
09
04
06
12
fd
f2
e7
06
01
f5
13
f1
ec
f8
ea
fa
28
2e
e0
e8
e3
e0
00
fe
f2
04
fb
f2
ea
f8
ed
e4
d1
dd
0a
0f
0b
0a
fc
f0
14
d3
f5
f2
f4
db
e8
e8
f3
1b
00
fd
f5
08
ff
e1
ec
02
17
f9
12
01
1b
1e
14
04
fe
2a
0b
01
15
21
0a
04
dd
23
15
f8
22
10
04
29
1c
30
19
0e
19
f4
12
d0
ec
1a
0c
0e
13
30
07
16
14
10
f8
f9
04
09
0c
0f
14
1e
0c
ef
fd
13
25
e4
04
07
13
35
e1
f3
ef
0e
fd
fb
14
0d
05
01
22
28
08
0c
dd
1c
f7
1c
f6
05
0e
f7
f2
e5
12
28
ff
f7
f7
0e
ee
fa
e2
f7
02
1b
f3
ff
03
1f
eb
02
e5
02
ea
f6
fd
ce
f8
fb
eb
04
ef
14
f5
f9
e7
e4
f9
12
d3
fc
d9
02
36
fd
0a
17
f3
10
02
03
1c
fd
28
ee
2d
31
27
39
31
22
e7
29
2a
08
0e
29
fc
ee
20
25
14
17
05
f7
29
15
1a
31
16
fe
10
0f
10
07
dc
04
ff
f1
1b
24
08
2b
1d
fe
24
24
ee
e6
c8
fa
10
12
f6
df
09
f7
09
14
0a
0e
ef
e6
f6
0a
ee
20
fb
18
11
dd
fa
1b
07
ef
f1
f3
e6
d9
06
d5
ef
0d
fd
01
08
0e
2c
0d
08
16
19
0d
ef
f4
31
f7
f5
ed
03
f8
ff
f6
00
1c
f5
ff
eb
fd
0b
1f
ff
22
24
07
0c
15
0e
22
00
06
f1
0c
f5
ea
08
0b
0b
fc
f1
f6
0f
d7
ec
eb
e8
f5
e7
12
11
0a
fd
ff
ef
00
01
04
0c
f9
dd
f1
e2
e8
01
0e
e9
00
f7
e8
f1
f5
e5
e1
fc
f4
18
26
fe
ea
ea
e4
f2
18
0b
04
f8
f9
fb
2e
05
f7
fb
fe
0c
fc
1a
10
09
fe
f9
03
10
1e
0c
0f
f1
11
f5
0d
ea
f6
1a
01
13
12
11
10
11
20
18
3f
33
f7
05
ee
ea
10
02
0e
25
1f
13
15
08
42
07
14
ed
1e
06
06
fa
0c
1b
13
14
0d
2f
ef
12
12
f1
01
eb
fd
04
16
07
13
e0
3b
fc
ec
11
f1
18
0f
10
15
eb
0a
22
21
1a
09
23
4c
08
b8
d3
d4
dc
04
03
e7
08
f2
dd
11
02
13
07
e6
f7
ff
f9
e5
e5
25
2e
13
10
ff
17
10
14
0a
07
1e
ff
11
e7
1b
ef
02
fe
1b
10
14
ec
16
f7
da
04
07
11
13
0b
f5
0c
1d
0c
15
10
ea
f0
12
f9
06
10
e0
cf
0e
fa
19
1d
e3
e8
d1
b6
e0
03
0d
1e
13
09
df
cf
e7
d2
c7
d5
da
0c
f9
0a
17
ec
f9
c2
ac
c7
af
cb
e0
19
01
da
f3
ed
d3
e6
e6
ca
e1
f8
06
33
eb
d2
fb
e0
ff
09
19
fc
0b
0d
29
1d
01
10
18
1a
ec
07
16
15
14
0a
04
15
0f
1f
03
c5
eb
f2
2b
09
03
18
f9
18
10
19
de
00
e9
f3
2d
e3
e0
04
f3
3d
fc
14
13
f4
1d
1b
e8
d6
f8
e1
00
fa
fd
f7
fd
df
08
18
e1
ee
17
f6
ef
11
24
0e
10
f7
ce
01
e3
f9
02
19
fb
02
07
06
04
17
ec
eb
ec
08
07
ee
18
02
17
eb
1a
fe
eb
dd
d9
e8
03
06
12
1b
f9
f7
24
13
14
f3
ed
db
fa
f5
08
ec
f4
1a
f9
00
be
e5
0e
fd
e0
0b
26
00
f5
ee
f6
fe
d3
e2
06
3a
36
15
15
f8
01
01
07
0c
fd
f1
fb
19
29
05
1d
ec
fe
1a
1a
0b
22
28
0a
18
2b
03
fe
09
1b
ee
f2
f7
02
27
f4
11
00
f4
00
f3
07
05
eb
07
e4
e9
0c
f3
01
de
fb
1c
f9
d6
2d
25
14
f5
27
48
23
ed
fd
fe
37
18
1c
fd
05
20
18
35
1f
f1
02
fa
d8
4b
0a
f9
1f
00
ca
29
36
07
ec
e6
e9
18
02
fd
d0
f1
f2
ff
01
f4
f5
02
04
1f
0b
08
08
0c
01
fb
12
f6
28
01
e4
04
da
db
fe
ff
20
f9
16
17
0b
14
25
f1
fe
ee
ea
0c
06
13
1c
f9
f5
ea
19
1c
f2
00
de
f7
c8
32
2c
fb
03
0c
0a
2f
f7
0a
0d
fc
05
04
33
06
e2
f2
0c
fa
0c
12
23
0f
03
45
30
31
fe
c6
f6
ef
ec
dd
fa
fa
09
1d
42
56
09
c3
fd
f5
0f
f0
df
04
0e
fa
00
1d
38
1d
de
1c
f6
f4
0c
fa
fb
05
21
17
fc
04
f9
e8
e8
00
e8
0e
fb
07
ef
15
f6
02
f8
d6
04
f8
28
29
00
02
f2
f5
f2
fb
f3
fd
f6
f8
1d
1d
27
30
f9
df
d8
f6
02
16
f6
13
fd
07
ea
fd
24
f6
01
08
1b
10
fe
07
01
ff
fd
14
04
ea
14
16
10
f2
06
02
fb
f7
f7
f5
fb
0c
08
13
0b
20
ef
15
30
12
07
0e
ef
0d
12
1b
02
fb
10
15
17
0d
03
f7
0e
18
f8
2a
1e
17
f8
0a
f9
01
0c
0e
f6
fb
f6
0c
18
f2
1c
09
03
eb
f5
e7
02
f7
0b
1d
13
1a
fd
02
fe
e6
ea
cf
e0
f3
e2
f6
f8
f4
13
08
01
fd
f2
e3
ee
f1
09
ed
dd
fe
f8
1f
1f
fc
00
17
0f
fb
fe
f7
02
dc
10
20
f8
11
f2
0e
10
09
1f
0f
ff
0c
f1
fc
19
f1
0c
11
24
19
fc
f5
0c
fe
16
cd
19
f6
0a
f1
1c
31
1b
f6
fa
07
22
1b
26
18
2d
2e
13
e5
0d
08
06
1b
fb
ec
de
13
fa
ea
02
ee
d7
cd
0b
c4
df
f4
00
17
d5
f1
11
16
03
1d
ea
e4
b5
fd
0a
f5
cf
01
10
0e
14
04
e6
ef
fb
fb
ec
0e
df
e3
07
fd
0d
1f
13
0c
c3
e3
fc
14
e1
e0
e3
f6
de
13
20
1d
f1
e1
04
e3
f7
05
e4
ef
dd
f9
10
e7
d8
2a
f2
0e
f5
18
09
d8
f4
18
20
20
27
ea
07
f1
03
1b
0a
e7
01
12
12
26
14
0e
1a
04
fb
06
0e
fd
03
29
35
1b
1f
fe
1c
30
e9
f1
ef
0e
13
f7
13
27
3f
35
f4
0a
09
22
04
01
dc
fe
fd
fe
09
20
13
1c
06
d7
1a
e9
f3
11
fd
02
f7
cd
c5
f5
f6
d4
c5
ee
f8
16
fa
f5
f8
10
d4
c6
ee
00
29
45
00
de
13
d2
1a
3d
0c
e1
12
1e
12
18
ef
e5
f1
e7
14
f2
f6
19
f4
0e
f2
03
07
11
ff
e6
02
f3
18
13
fc
0a
07
fa
fc
f7
05
dc
ed
18
ec
04
e7
dd
08
f6
04
0c
0c
21
f4
eb
f5
e5
0a
e4
0e
0b
02
08
1e
08
03
27
f5
10
06
fc
02
21
0d
20
f3
07
0a
fc
00
0d
06
f9
fa
09
2e
06
f6
ea
f6
e7
05
e8
10
e7
00
1d
0a
05
ff
e6
f4
0c
21
23
11
d7
e8
13
ef
11
e0
e2
0d
f0
00
da
08
ff
0c
1f
05
ff
10
da
da
fb
e5
08
fc
fb
f7
f8
12
18
0d
12
e1
fa
01
03
d2
0e
eb
06
11
17
00
32
ec
e9
f6
f1
f1
cc
fb
fb
1d
db
db
13
f0
d8
ef
eb
c8
de
19
1d
e7
2d
0f
0e
ec
f6
1c
1c
06
08
2c
e1
19
1d
ed
23
0f
ce
f5
23
0a
1d
f9
dd
02
15
fc
0b
fa
f3
f9
fa
13
21
20
e1
e7
d6
11
f8
e4
df
fc
09
eb
d7
fd
0b
e6
b1
e7
f8
25
ef
f4
00
08
e0
0f
fc
f5
e0
ec
07
1e
1c
e9
eb
04
e6
f2
cf
f0
30
e5
c3
2f
0f
24
3c
06
24
1f
0a
2a
df
d4
dc
eb
ed
f8
0e
04
f4
06
f4
e7
da
f3
fe
fc
02
11
ff
f2
29
fc
d9
e3
e9
ed
09
e1
25
39
11
fb
ff
04
e0
d3
d2
d9
e3
e7
df
0d
1d
23
db
df
08
20
e7
fb
e3
2a
2d
00
02
3c
09
f6
10
f8
08
f9
e5
0b
30
39
ec
ef
fc
09
30
32
f1
03
1f
17
23
26
06
c8
ec
00
f0
26
0b
00
fc
e1
e6
00
29
13
03
04
0d
21
20
03
f4
ff
02
1a
16
f2
f2
0a
0b
f2
0c
0d
03
05
e6
f2
11
08
19
07
e4
f0
e0
ef
08
fc
fc
e1
03
0f
0a
10
09
dd
f4
e1
f6
0f
1b
f5
e7
fd
f8
0f
f7
db
e7
01
f9
03
df
18
1c
ed
f2
f9
03
ff
ff
0d
f3
e6
e5
03
eb
26
e7
f6
14
f5
ed
18
15
ff
da
e9
12
06
06
eb
0e
0d
0c
20
01
fd
e9
03
f3
10
f2
06
df
fa
0a
15
18
ff
ea
06
07
07
f9
1b
f1
f5
02
06
10
20
0b
09
f1
fb
e8
eb
ee
08
fb
fb
06
13
0d
ee
e0
f2
d1
cc
d1
fb
f0
ea
fd
0b
f7
1a
f9
e6
f7
e5
e3
e0
05
01
fa
dc
f5
23
e7
0b
e0
c6
e0
08
30
1b
ed
08
10
13
fe
19
eb
07
08
f1
f3
13
0d
f6
01
07
0d
f4
07
ff
f6
0f
30
18
17
ec
f2
ee
0f
fc
c9
dc
02
1e
fc
4d
19
19
fd
1d
09
12
fe
e6
eb
0e
0b
23
f6
cc
de
1b
04
d1
db
e5
12
f7
f1
07
ee
03
0f
db
04
e0
df
bf
e2
f8
09
ea
fa
02
f6
fa
02
ec
12
cc
f9
db
d7
e1
03
d3
04
0a
f5
fa
07
1d
fc
03
e7
e6
fb
0d
ef
18
e9
f3
ec
05
19
0b
e1
07
e9
eb
dd
fe
dc
e9
f0
da
c5
0d
eb
fa
0b
eb
de
dc
0e
f6
f5
ff
cf
ed
f4
f3
1a
17
31
0b
05
fa
1a
11
12
f3
fb
1f
f4
31
0c
01
0c
11
0b
0c
fb
fe
06
f5
01
13
1e
e1
ec
12
1c
11
18
e9
02
e7
ef
f3
f5
11
e5
ee
f4
03
0c
0d
e4
1d
27
ee
fc
e7
f9
11
ff
27
0a
f2
04
f5
15
02
04
fa
c8
17
07
ef
02
05
da
09
ea
0e
0c
fe
02
08
15
17
e7
f4
d5
04
ff
02
e7
0f
10
e8
0d
2b
14
09
da
11
ea
f6
f9
1c
19
e9
05
22
25
eb
f4
e0
e8
d5
f6
fe
08
26
fe
de
2a
ff
0b
fb
fb
d3
d9
da
e6
f2
0b
02
fe
fc
01
e7
fc
f1
ca
fa
ec
16
24
eb
fa
f0
14
1a
14
fc
12
ff
fc
0c
15
12
07
f2
fe
f1
fa
eb
f5
e2
0d
09
f6
0d
fc
e4
e4
1a
19
0b
e4
da
f8
fe
06
f6
12
f3
dd
ff
03
06
1c
cc
e2
09
0b
04
0a
07
09
e6
1b
28
0a
f2
fd
f1
f8
04
25
ed
1c
fb
ed
e5
de
e3
0d
03
e1
fb
e3
f8
06
06
ef
e6
28
f7
13
f0
1b
0c
06
14
31
00
fd
0d
d7
20
e9
01
17
e3
e4
29
47
1d
17
34
09
f7
d5
04
df
cd
09
00
0e
5b
1f
f3
0e
50
00
fa
dd
f0
ca
20
09
1a
5e
49
33
e9
fd
28
f2
e4
01
be
df
22
2e
31
06
e6
07
0d
08
cd
f0
0a
ff
02
f4
29
e5
f6
0d
2c
fc
f9
11
fc
f9
0c
e1
f6
e2
d0
de
f7
19
df
f4
f3
f3
00
00
c3
ed
eb
f6
d4
01
e6
cd
f3
da
1a
0d
05
10
e1
03
07
f4
d2
fb
d1
d3
f9
fc
eb
f4
f6
ef
01
f8
ce
bb
c0
b1
fb
1b
1b
01
22
eb
f0
ff
e2
ca
ca
da
10
fa
f9
de
26
f2
da
fc
02
d2
e6
dd
17
f0
e1
f7
03
03
12
fc
f3
f7
23
1e
06
02
f4
fb
21
db
d8
09
fa
00
f9
14
18
f0
1c
19
18
0d
05
e5
ea
11
14
1d
f3
0a
fa
e0
f2
e4
05
f0
02
ed
04
17
16
04
fd
ea
e2
f3
0c
03
f8
ef
2b
fb
21
0f
f7
04
f9
24
e5
1b
01
02
f8
18
fb
fb
fc
fd
05
fe
1d
08
f4
00
fc
fa
03
ea
04
f0
f5
f4
f4
01
14
f9
07
e5
ec
05
0d
fd
d2
dd
e6
fd
0e
04
09
f5
0b
f8
11
0c
e2
fb
c3
00
fa
fa
03
17
23
1e
f3
fd
18
05
e8
e1
08
07
f0
e9
10
ed
09
2a
13
0f
f3
fa
e8
0b
f9
e4
ff
db
fe
07
fd
0b
ef
05
17
f0
ff
d4
fa
ea
d7
0f
f0
0d
fe
f3
fa
01
eb
f1
13
1b
0e
ef
0a
17
e6
eb
ec
16
00
24
06
f0
0b
0e
0a
18
0b
05
2d
07
16
24
c8
fe
ec
ff
e5
e4
f1
fe
eb
f1
e5
d8
f9
d5
e2
e3
de
03
fc
e5
f7
fe
fb
04
bb
df
db
db
ef
c0
c3
e9
fc
ef
ec
01
19
04
16
df
25
06
da
e5
02
ee
13
ea
16
e7
e9
eb
03
e8
0f
0c
0e
f9
fe
04
f1
fd
02
0e
ff
ad
c3
d3
12
e4
e9
05
fe
fc
05
ed
ff
d2
b8
b7
b6
e9
ee
10
19
13
f0
06
02
e5
d6
db
f1
f9
e0
c3
f3
f2
0d
f3
e0
f7
c3
d2
f2
ec
09
ef
df
d9
0a
d7
e2
ef
0e
00
fa
e6
17
26
1a
11
2e
3c
e3
da
fc
f6
24
f8
15
01
2b
09
12
f5
23
d9
07
1f
24
0f
12
fd
08
f8
fd
fa
fa
f8
04
0b
fa
fd
f3
1c
e5
03
0e
00
1a
00
07
f3
e1
f1
bb
1b
19
2d
f3
2c
dd
0a
f9
08
f0
0c
f6
fe
db
02
04
04
f3
fe
e9
0d
e7
ef
df
fe
e2
cb
fd
0f
1b
04
ef
03
04
f4
ee
d1
04
fd
f7
f5
18
e7
ec
fc
0d
fb
e6
fd
ee
ed
05
f4
ef
00
dc
05
fa
de
fc
0e
0a
e4
f3
ee
23
16
34
08
25
fe
0a
f6
f5
1f
e7
22
d3
fa
f6
18
15
16
10
f2
ed
ec
11
05
d2
02
0a
05
16
e6
37
07
db
d0
ff
13
f7
db
00
05
06
f7
03
11
f6
ee
02
3e
f6
e7
fb
14
11
02
e2
11
f3
f5
09
2b
1a
fe
ef
0b
23
f2
ef
ff
0a
0c
ed
e8
04
fd
26
07
02
21
e2
06
18
fb
01
03
f7
18
1e
24
25
18
52
0d
f5
07
e9
4d
02
13
1a
35
19
fe
14
02
0e
da
34
1c
fe
02
0f
fc
eb
1f
de
fa
fb
0e
fe
19
2e
11
e3
e0
e6
0d
05
0d
f8
05
e7
13
e5
06
f0
17
23
07
10
18
00
34
15
f3
f1
05
00
18
07
12
f4
e0
0c
e6
29
02
cf
b8
e3
11
f1
da
c7
1b
eb
17
f3
09
fe
03
b5
dd
23
de
07
01
de
12
22
cb
ef
e3
e9
b6
01
f0
e2
f9
ed
02
e9
06
fe
0f
e1
be
08
03
e6
df
1b
f9
fb
07
ed
e4
ef
e2
e9
11
e7
e6
1e
f5
47
f3
46
fd
d7
f4
04
df
22
ee
1b
13
02
16
fc
35
e9
ec
f5
16
02
10
2d
e3
1d
e4
05
da
41
18
06
0f
11
0a
e6
11
f0
dd
f5
1a
34
22
04
e5
10
e4
14
fb
0b
02
f8
08
14
f3
19
eb
fd
d4
c1
fc
05
0d
02
23
f7
f9
12
ee
d9
f6
0d
d4
ea
0b
09
0c
f5
da
d9
08
11
e5
ed
1d
e9
e2
0d
24
f0
02
f2
f5
f6
e7
fe
f6
22
d7
fb
f8
08
0c
f4
ee
f5
e6
e6
07
e4
fb
e4
07
e3
1b
f4
17
1a
fc
12
ef
ff
cb
f5
0a
f0
f8
23
fb
21
01
e0
ff
11
10
fd
11
f2
08
0b
07
07
04
07
c2
01
f1
f0
fb
d8
d6
0b
fe
fd
ef
0e
ee
da
03
e5
ef
05
fb
07
f5
16
fd
e7
20
0e
f3
d6
2c
d7
dc
e4
fb
fb
09
05
f5
1a
0a
f8
f6
15
fb
f2
f1
17
1a
ee
04
f5
11
f8
eb
ea
f1
05
fa
29
1a
10
ff
0e
01
04
f4
0f
f4
e9
ff
fb
0a
0d
f1
07
1c
35
09
04
04
ec
02
ef
df
ed
15
ea
0b
12
22
ef
14
f6
05
1a
15
f5
e9
0d
25
00
fa
ef
23
e9
e9
d8
2c
ec
fb
f6
07
03
f3
1d
f5
fb
02
ef
0a
2a
f5
f9
f1
00
f4
16
fb
11
15
f7
f2
0a
df
e7
fd
ef
06
fd
21
e7
10
03
fd
f3
04
10
f8
15
2b
ff
17
08
0c
f1
ec
f1
ed
ff
0f
fc
f6
08
11
ec
1a
fd
1a
e6
e8
11
3a
2a
ff
0b
f7
02
fe
14
09
fe
f7
0b
21
1f
40
e1
0e
fe
d6
f5
0b
08
f9
ee
0e
28
2a
20
ff
0a
fa
08
06
14
0f
1e
1f
23
27
26
2b
34
1a
18
fd
14
13
fd
18
2d
22
26
f5
e0
d4
c2
d9
f0
dd
22
1d
ec
23
ff
22
29
22
d2
2a
2c
ef
42
07
11
f5
02
0a
fa
f0
03
fb
21
f3
fb
ff
1d
14
f8
eb
01
1b
17
19
07
1a
fb
0a
1e
fc
f9
0c
f5
f0
e6
f2
ec
f4
0c
07
09
15
f3
e4
f6
f8
f6
e9
03
e6
10
fa
e8
e1
ea
f0
f0
12
24
19
0d
ff
eb
15
fd
e9
c8
f4
0e
01
0a
08
0e
26
27
20
eb
f6
14
11
27
08
0a
07
10
fe
f8
ee
db
05
34
1e
14
1c
19
07
f7
fc
fc
0d
1b
eb
10
1f
12
15
14
05
ed
18
e7
fb
ed
f3
f7
1f
11
11
09
fc
ed
fb
f2
05
fa
e6
f3
02
05
19
ff
07
e7
d5
e8
f4
06
e9
fb
f3
10
e1
eb
e9
f5
e8
df
d2
d6
d0
11
c7
fc
00
e4
ef
12
f1
04
e4
fe
db
da
00
ff
e6
1b
05
f7
12
13
17
f7
07
ff
e8
00
eb
0d
1c
d9
d7
e3
ed
f2
f9
13
09
06
0c
00
0d
35
ed
f2
f6
dd
e1
f6
09
0f
18
ff
e6
dd
de
09
d9
fb
f5
e6
f7
12
1b
0d
01
eb
f0
ef
0f
fe
da
e0
08
1d
2b
0e
13
ee
ea
f9
f6
0b
06
17
20
11
eb
fb
2f
2b
e1
ec
f6
17
11
ff
fb
cd
02
d9
15
fc
11
ce
e3
da
ef
fb
09
f7
ec
c5
cc
dc
e8
da
da
e2
f6
e3
05
28
d5
e5
c8
cf
f0
fa
fc
d8
fc
11
00
fa
f7
03
e7
e4
e3
c6
1f
39
37
26
34
37
22
fb
f6
ff
07
e9
f2
30
32
52
46
48
27
0b
09
fd
1b
0d
f5
07
47
10
6f
2c
ec
33
f2
01
fc
0a
f8
e8
f6
e8
e8
e8
db
05
f9
de
07
15
1e
1c
1b
0d
f7
fa
fa
ed
0b
2f
ef
0d
18
06
fc
ec
fd
1d
06
e1
f5
0c
1b
0a
f4
f5
00
fd
ff
05
f9
e9
f8
06
0f
0e
06
ee
00
fa
00
ef
e8
e9
01
05
fc
12
ff
fd
07
e0
f1
eb
cf
d3
ee
17
04
f6
e5
dc
07
fa
f6
f0
d2
c7
e0
ea
fc
08
f6
06
16
03
09
f0
05
e5
f7
f0
fd
f2
e3
1c
f9
e6
1c
01
1d
06
27
f7
fc
fd
00
0e
ec
fe
eb
15
fe
15
2a
36
00
f3
ec
fb
00
03
08
e5
01
1c
01
0c
24
f8
f0
0a
1b
05
02
e2
0d
02
f6
1b
f1
02
09
07
12
1c
fb
00
1c
1b
fb
02
e2
e0
ea
dc
12
f6
fa
21
15
1f
22
d9
e2
f9
e9
03
04
f3
fd
da
fa
f0
f5
27
e9
16
f6
f3
01
06
f5
e5
00
09
f3
0a
05
ea
e8
dc
fa
ed
1f
ef
fb
0a
ff
16
f4
15
21
f8
eb
0d
14
10
ff
db
fe
15
21
d4
e3
1f
eb
d4
fa
0d
1d
28
1b
e7
e2
de
03
fc
f9
f3
e7
0a
05
05
fb
13
0f
f0
19
2a
dc
19
e6
db
08
df
09
10
42
ff
31
fb
da
15
13
06
05
fd
ef
f3
fc
04
2f
01
e6
c0
fd
0f
f3
20
d4
cf
d8
0e
03
18
db
00
ec
04
f7
f4
0d
d8
e1
0a
17
05
10
01
15
02
f3
e4
32
0c
fa
32
26
fb
15
cb
cd
05
ea
f0
0a
f2
01
f4
05
03
18
ec
f6
ef
ff
f5
0c
e9
0e
17
07
f8
bb
02
11
ec
e8
f5
11
e6
20
28
18
fd
ea
eb
e0
cb
d1
fb
f1
f8
08
14
e6
0f
f5
11
10
05
26
04
f9
fe
0c
04
20
fb
e9
fb
f0
e8
d9
e8
ee
0e
f2
f5
06
1d
e1
fa
23
f2
fc
20
e9
06
fb
ee
1b
0e
f5
04
f0
02
e4
fe
ea
20
1e
16
17
fd
02
f2
eb
f8
04
dd
d5
eb
00
fe
f9
f0
f6
db
04
15
ed
f0
e1
ed
28
eb
05
fa
d8
f1
0b
fc
fa
06
d9
ea
21
14
f9
04
e2
03
08
06
02
f6
e3
d7
2e
19
1a
07
ef
1d
f7
1d
1c
06
24
07
f5
26
10
f3
ed
f6
13
00
20
e8
f4
06
e9
08
f3
fb
dc
ef
f9
f3
e3
f2
f8
f6
16
0e
f0
02
e0
fe
df
e3
10
e6
07
fc
22
00
24
fd
10
f3
f2
0d
07
18
0e
f8
ea
30
09
22
e9
f0
eb
07
f4
e2
17
ef
e3
0c
1b
20
0d
2b
0c
ee
1e
0d
f0
28
19
28
eb
0d
28
1a
03
fd
08
f3
0c
ee
fd
fe
14
0a
28
02
06
11
0e
3b
f8
0e
f9
0a
08
0e
07
23
05
07
20
20
18
03
e7
c6
16
03
41
f4
f3
f1
e3
f3
f0
14
14
02
fd
00
fe
f6
fa
00
e8
01
f3
e5
fd
0e
04
f0
f2
fd
ee
07
05
10
f3
0a
e0
e8
f0
2b
01
e9
08
09
ce
f2
f9
f9
d2
f9
08
1c
f4
03
1f
e5
f3
06
f6
f6
ea
e3
f9
16
f2
f9
19
e2
cf
dc
fc
e3
3e
e7
f9
13
20
0a
0d
2c
00
f0
d8
e3
10
08
ea
f6
04
29
32
e9
ef
f3
e2
07
1c
ed
14
0a
f3
f5
cb
f8
10
df
f3
e5
15
ed
1f
f5
21
07
10
00
de
09
07
0b
f3
11
19
0f
e3
0c
09
f2
0b
08
1e
0e
26
17
14
15
02
ec
08
17
e6
19
e3
eb
ee
07
01
08
06
07
fe
db
09
fb
12
ea
f7
11
0d
ef
17
ec
05
f4
dc
df
09
04
e2
00
0d
12
f9
0f
d7
0d
f5
e8
dc
ee
f8
07
10
02
f1
ff
e1
f3
fa
03
fa
ce
d2
f1
08
f8
ee
0a
ee
e9
dd
ee
02
d8
dc
dd
f0
04
13
e7
ee
06
0b
d9
f8
f9
02
d5
f8
01
fa
ea
d4
eb
0d
23
05
df
f9
f2
f0
20
ea
ee
e0
f7
fb
ea
fc
fb
0b
10
0b
14
0b
eb
05
e9
f0
09
fb
03
03
ea
11
10
01
d9
e8
05
0d
f5
e8
e8
f2
01
ec
00
00
da
0b
0c
e0
f7
d9
e4
0f
fd
e3
25
21
1d
08
e5
e2
de
fc
03
0b
f8
11
e0
10
16
eb
f2
ff
fb
e7
fc
e7
06
00
ea
f4
f9
eb
f5
fc
0b
f6
e4
0f
f8
fe
0a
fd
f5
fe
18
19
fd
09
ee
f2
ff
f2
fd
e8
0e
17
16
2f
29
17
0c
fb
f7
fc
0f
10
19
06
04
28
16
11
08
05
e3
f9
f5
f2
eb
03
f1
e4
04
03
f4
d7
f9
f2
e4
f2
e0
03
05
21
16
0c
01
e7
00
f5
0f
01
16
fb
0f
15
2f
1f
15
f5
15
f6
08
0b
18
2b
12
17
0f
f2
0e
12
e6
eb
01
f2
f5
03
1c
eb
ed
04
23
01
e9
e5
12
09
f4
f5
f4
eb
06
0c
41
06
04
07
26
fa
e3
fe
e8
f2
f7
01
fd
20
1b
2b
05
29
0a
f5
f7
f2
06
dd
19
1a
1e
03
0e
ef
f0
d8
f8
ed
ee
e8
ff
ee
d4
06
0c
e7
16
fd
f1
05
1f
ef
ee
e6
e6
01
09
e6
09
0c
ff
12
f9
e6
f3
f3
ef
0f
e9
f8
fe
12
1c
17
03
e1
ef
f8
15
d8
f6
df
e4
17
e9
09
0d
fd
fe
e8
e9
ec
f8
f9
e3
ee
0c
06
f5
f2
da
ca
fe
18
02
0f
ed
f0
f7
f0
28
f3
0e
f3
11
18
12
e0
02
f3
f5
0c
f9
16
f7
f1
06
fd
e8
04
07
02
04
08
fe
ea
fc
19
11
01
e4
fe
f7
e2
fc
e8
f2
21
06
16
f6
e9
21
eb
fe
0c
dd
fd
f1
27
eb
ed
05
f2
04
e7
e6
0c
11
fa
f7
f4
0d
f0
12
00
11
35
f7
dc
01
fc
e9
01
e4
10
dc
0d
ec
0c
09
fa
fc
fd
dc
d6
f8
ff
fa
e9
04
0c
f9
0f
1a
fc
fc
ff
f1
ec
0a
15
ea
e5
14
f1
cd
dc
0c
e8
ee
df
eb
03
14
03
be
dc
ce
da
03
01
f8
12
fe
f5
f5
0d
07
08
fa
c8
0a
16
02
eb
1a
f6
06
d7
ef
fa
ec
ed
2c
2c
0a
f7
f5
fe
fe
20
e2
cf
05
e7
00
ff
1e
ea
e6
e3
15
ee
0b
f2
d6
05
05
fd
16
f9
cf
dd
df
de
0b
fc
ef
07
ff
1d
2d
e6
f9
d9
cf
cc
01
e7
fa
e4
f1
08
0c
21
1f
ea
f3
eb
05
d8
e7
e6
f3
03
07
db
12
03
04
fd
fc
d0
06
e3
f0
e1
ce
fd
e8
00
06
dc
0a
11
ee
08
fa
27
e0
fb
e8
04
f6
c8
22
e3
0a
fc
f1
f3
0b
e7
e9
02
e3
f6
dd
0a
f2
e3
e7
02
f7
f3
d6
e5
df
d6
cc
dd
e5
f5
02
ef
08
f8
ed
cd
0b
ec
dd
d1
13
11
0b
04
0a
e4
f2
03
0e
f5
fa
09
f0
ed
f5
eb
f0
04
e1
df
dd
eb
f5
15
0c
11
14
ed
01
08
fb
10
db
f8
0a
e2
0e
fe
eb
1f
f6
ec
e2
04
09
e2
df
e5
e0
ef
f8
0f
ed
0b
ef
00
f0
e1
02
07
d9
dd
f1
08
fb
15
df
e6
0b
f5
06
fe
06
05
ed
18
10
fd
1d
ef
02
09
e1
08
06
eb
e7
0d
fd
ed
02
0a
02
f7
09
e5
ee
fe
01
fe
f8
0a
0c
41
0d
08
0b
0a
ff
fd
e5
fc
e9
19
10
1f
20
f7
04
02
ee
d6
08
f0
f9
15
ed
f7
e4
f4
f0
0f
f0
e8
eb
17
f9
f5
d7
08
eb
ff
f3
ee
06
ff
f7
e2
08
ff
00
f5
eb
f9
f4
e6
13
23
e4
f8
fe
fd
f5
db
ff
ee
e1
e9
02
e5
e2
dd
0c
fb
e6
19
e9
d5
f4
d3
08
f6
13
de
fc
2e
fb
46
1c
fd
e4
e5
e3
d3
ee
fa
2e
1c
52
33
33
02
01
fc
f1
cf
06
0d
dc
18
40
52
3e
1a
12
e6
d7
ce
ae
eb
f6
1a
3c
4c
3c
21
0b
03
e2
da
e6
f0
fd
fd
17
2a
52
45
11
17
11
e2
04
f8
04
e9
1e
f2
01
11
34
37
2c
02
fc
31
0d
17
31
0c
28
03
f9
33
22
08
12
09
21
3a
25
63
28
0c
fc
08
fd
04
11
1f
1c
19
2d
41
2d
3a
0a
03
0e
ea
01
f7
f3
18
0d
1f
2f
1b
04
fa
0b
ff
f1
fe
ef
0b
15
03
10
0d
0c
dc
0b
f7
0d
ff
03
ef
0b
f1
05
0a
06
e3
e3
05
03
ef
fe
11
dc
f7
0d
f6
ec
f8
cc
04
f0
f3
17
1e
03
35
1b
fd
d7
ed
e4
04
09
f6
17
02
e2
00
06
00
f1
ee
0e
e8
19
11
06
03
f9
11
ff
ec
f7
f9
fa
06
f8
20
ff
fb
17
fe
fd
f4
fa
f9
f5
0f
05
0b
27
d5
1f
f1
d3
f9
d8
dd
09
2b
1a
32
26
05
21
e4
f9
e9
eb
06
0d
01
1d
2f
1f
06
f8
fe
f4
0b
f4
fe
13
02
dc
0b
26
16
11
02
09
20
1c
02
0b
1d
f4
f8
ff
03
09
f7
06
cf
0b
f8
ff
13
0b
e7
f8
f8
00
f9
04
1b
e4
01
fa
01
0e
0b
0d
f0
fc
f1
db
f3
fa
09
ef
23
fa
0a
fb
04
ed
f4
e0
cd
f6
04
10
fb
0c
10
0d
15
f7
e8
f6
f7
e0
df
e9
00
05
f3
0f
07
07
f2
11
04
13
e4
e1
13
07
23
f4
04
e7
32
17
00
09
34
00
e1
0a
de
0a
0c
e0
0f
10
e3
17
13
1d
0e
0f
11
f1
57
23
fa
1b
25
35
27
0c
1f
1b
0b
10
18
12
f4
3c
0a
21
1b
20
fc
f9
eb
ee
f7
f2
0e
0f
05
22
39
04
fb
cc
c5
be
d0
e5
02
17
28
2e
13
15
07
ea
d6
df
e9
d1
d8
f7
ce
fc
fe
f3
fb
f3
00
fb
06
1b
04
fc
16
1d
f2
e0
de
d4
03
15
1c
0f
0b
1a
fd
f2
01
f4
1a
e9
f3
14
05
0c
ec
11
0e
23
ec
08
d3
fd
f2
0e
fa
f4
1c
3a
1c
3d
1d
ee
e8
fc
16
03
00
dd
23
3f
2d
31
2a
f8
1d
04
f4
12
fe
00
ed
15
0d
1a
24
0e
f3
0a
1d
f2
f8
08
19
f4
fd
12
e0
f2
d6
0d
1a
f4
06
0f
15
0e
32
f6
01
15
fb
04
e7
07
ec
1f
0c
07
07
1e
fb
11
02
f4
e9
23
de
f0
01
fc
14
f9
1d
06
09
06
1a
0e
05
fd
1c
f8
ea
fd
0c
f6
10
27
11
35
04
1c
d7
0d
04
e4
d4
e4
f6
0e
22
18
0d
f4
f0
d9
e7
e3
e2
d9
db
f7
1e
17
16
01
db
ef
ed
0a
e7
e7
db
ea
f1
0c
17
fb
14
e1
05
fd
04
f4
0a
06
e3
03
1c
0a
fe
ed
ed
ea
e9
0c
13
04
ff
0f
09
07
00
fd
01
f1
16
d6
fd
0e
09
19
f7
f3
04
09
02
e6
e2
08
f6
14
f7
f2
e6
fd
0e
0c
0f
0f
f9
ee
ea
05
1c
f2
0b
12
fc
fd
00
fc
26
f2
e3
df
f8
0a
e1
fd
ec
e3
17
05
fd
07
e7
0d
22
0b
19
0f
f3
0b
09
f6
0e
16
ff
fe
04
fc
0c
db
e1
f0
4c
fe
04
fb
11
f6
e8
d6
f0
fe
f5
03
18
35
15
ee
13
07
15
14
1b
eb
ea
f9
25
ff
1b
10
02
ff
f6
fa
f0
ee
f8
0a
27
0a
fd
0d
11
fc
32
03
06
fe
f0
04
9b
06
12
18
02
09
f8
f9
09
d7
d6
c5
d1
cd
2f
13
ef
ef
ff
cf
b0
fc
d2
fe
02
c3
dc
25
1a
e0
db
ef
c3
d5
e5
1d
15
ef
06
ee
2d
eb
f6
2b
0e
1c
f0
f0
fc
10
0c
31
1c
f3
eb
ee
1a
01
3e
16
0b
12
21
27
fe
4d
02
02
09
01
f5
04
fd
f7
ff
1e
e7
24
0b
0b
08
ed
02
e2
e8
f7
ff
fc
02
fe
09
eb
eb
07
0b
0f
e9
ee
f8
0a
e6
e6
02
f5
3b
fd
fc
0d
16
09
f5
e3
fd
0e
07
19
09
0c
ea
ff
fb
ff
0a
ec
fb
de
fa
f8
08
01
f9
1d
15
1c
02
e8
f4
d6
04
fa
08
01
fc
ed
22
f4
0d
f5
0c
ee
e7
00
e3
eb
0e
0c
e4
f9
08
11
0b
f5
0d
ee
0e
05
e7
2b
19
05
11
06
30
46
17
dd
03
21
f9
29
23
0e
19
3e
3f
3d
40
39
10
4b
30
1e
2f
36
08
15
1c
2d
29
30
25
36
2a
1f
1a
1a
07
ec
e8
f9
05
f6
05
0c
29
28
0c
ec
f0
1f
0c
09
08
e7
fc
dc
07
fc
09
26
05
03
eb
f6
08
f9
f8
1a
ff
09
0c
f0
0e
e3
cf
e5
f9
21
ee
fc
04
e4
f2
fe
e7
ef
0e
fd
ea
08
01
1c
f5
2f
2f
20
1f
f2
08
06
25
07
09
1a
13
18
d1
0a
19
07
ef
04
01
ea
14
fa
ed
0f
e1
ea
f9
12
ef
0e
05
13
24
19
12
d1
14
f4
2a
0a
f0
11
09
f8
10
f9
2f
32
00
23
fb
ff
0c
22
2d
01
0f
0d
10
30
12
f8
fc
22
f5
1e
e9
fe
e4
f6
07
12
24
16
c8
02
f0
ef
e7
ce
e4
11
26
0d
fe
00
fb
27
16
09
e3
c6
f5
00
1c
38
f1
f7
f5
e4
e1
37
e4
e4
e2
f3
ea
2a
0a
26
13
fd
00
f7
02
ff
08
fe
f8
1c
f5
c3
bd
dd
f1
ec
fa
fd
fe
07
0f
2d
fc
e6
db
ca
cd
e0
22
0f
1b
06
e6
e0
ed
fe
f9
fc
f0
07
1c
11
51
eb
ea
0b
f7
0b
fc
30
15
f6
28
29
12
f9
ef
08
fc
f8
ff
13
2b
15
42
2e
4c
41
19
f2
e7
e4
25
2f
ee
fc
ff
ed
fa
e5
05
ec
0e
0d
1e
0d
f2
fd
08
00
df
2a
fb
e8
fa
1d
03
0b
0e
08
07
eb
0a
11
0d
01
ee
e4
f9
0a
11
ee
e3
f3
0b
15
19
1f
0d
05
0c
f6
14
fa
24
09
fb
12
1f
18
16
17
13
f8
16
34
08
02
f9
e4
e0
f7
14
13
43
07
14
0f
2c
20
0e
f5
ec
dd
0c
1a
3a
25
27
15
08
26
47
2e
fd
f7
f7
fe
11
01
20
25
17
14
07
20
20
20
0d
10
0a
f2
13
1a
22
1f
1a
0e
1b
14
1f
14
0f
f6
0b
fc
f3
02
f3
0b
03
fa
0f
1c
fc
e4
05
f9
fb
e8
ef
0b
fd
02
f3
0e
f6
08
0d
03
ec
01
f7
15
31
dd
15
f9
f0
f8
25
34
08
2b
10
21
27
d8
f1
e7
ee
01
e5
ed
03
13
0d
13
f4
f4
03
fa
f4
0c
0b
08
f8
09
13
f7
1b
ed
0c
01
ea
0d
18
04
00
f1
0f
fd
0a
e5
fe
eb
ff
f0
f9
f4
0a
e4
12
ff
fe
f5
07
e7
10
14
05
00
12
14
0a
06
06
f9
ea
e6
ec
ff
f9
e8
eb
e6
e7
eb
08
10
e4
16
e2
f5
f8
17
0e
ed
f9
07
ec
ed
f9
f8
01
12
de
e5
05
0b
f8
e9
e6
f6
fe
f0
11
fc
0c
0f
07
ff
08
f1
00
f1
09
17
ee
f2
00
15
fa
03
ed
f4
12
0e
0c
e8
12
06
ec
e7
fc
06
03
fb
12
e7
e8
fe
e9
14
f9
00
0c
eb
14
ed
01
0a
03
04
f0
04
e4
0d
07
09
03
e1
08
fe
f1
e9
f8
f0
fb
f8
00
05
02
02
04
12
f1
eb
1b
d9
ea
fc
e5
e7
ff
1a
e9
07
12
ed
f8
fd
e9
09
e4
fd
02
11
eb
0a
f4
eb
ee
e9
f2
f4
f1
e8
0a
f5
f5
09
09
f8
12
10
e8
e9
fd
e6
f5
f3
e8
ed
0a
e7
e2
00
fd
11
f7
e6
07
eb
12
08
0c
f8
12
f9
ee
02
04
16
f4
e6
fe
05
e3
04
0a
e1
ee
e4
13
14
0f
16
e2
fc
ee
e6
f8
f3
fc
ec
ea
09
14
f9
01
e7
02
fd
15
0c
f1
01
16
e7
09
13
fe
fb
ef
09
12
eb
ed
02
f9
16
17
f2
d7
ee
06
14
e7
15
06
e7
04
ee
03
f0
ed
e2
f4
ee
ff
0c
f6
01
11
0a
f2
fc
11
eb
f1
13
f4
fb
18
05
12
00
11
ed
04
f5
ea
0d
e7
17
14
e4
05
16
e8
02
fd
f1
f9
ee
c0
c9
d2
15
fe
f8
18
f2
f4
fd
19
db
d1
c6
f2
c2
15
17
fb
fd
0d
e0
06
1b
ef
02
cb
11
ed
16
09
16
08
06
fc
eb
f2
04
e8
c4
f9
05
eb
06
11
e8
e6
06
f2
02
ed
10
ba
f3
15
0b
07
08
eb
08
f0
fd
f2
ec
e9
f2
fc
0f
00
0b
03
09
00
f7
fb
10
0d
e7
e4
02
05
f6
09
fd
12
0a
e6
e5
f7
f8
e6
eb
f2
ed
0c
02
e6
0f
01
07
11
e4
f0
13
00
08
f1
ff
0a
04
f9
f8
ea
12
0b
03
f2
14
e2
11
0c
e7
f0
e4
e7
16
ff
f9
e2
f9
07
1b
eb
f0
0a
f3
f4
05
ec
e7
06
ea
02
bb
02
09
ff
0e
fc
04
fa
ed
e6
d5
d2
cb
cd
16
14
fe
10
f2
11
eb
1d
d0
e3
c4
e6
0e
04
12
fc
ed
09
13
ed
fa
fd
ed
12
ff
10
0e
fd
f6
14
fe
00
06
e5
f8
e7
f3
00
ff
0f
e9
0f
fb
08
06
fb
fd
f3
0a
0d
05
04
11
e1
ef
02
11
12
fb
e2
fc
fc
01
16
17
e8
10
f7
ec
e3
fe
f2
0c
e9
e8
17
ef
11
f5
00
f0
f0
ef
e6
03
13
f4
fb
e8
02
11
0d
ee
00
07
f3
e9
f7
0a
f1
0f
0a
ef
08
e4
ec
02
e7
fe
0d
02
fa
e8
f5
f0
ff
0c
f0
06
f7
08
0d
03
e6
f7
e3
16
fc
0e
e7
06
0e
0b
0b
ef
ed
06
f0
fc
05
ea
f7
e0
01
e8
02
14
ee
ef
e2
0e
0c
15
e4
ff
ed
e6
08
15
e5
f9
0e
14
0e
f4
eb
01
f4
19
0f
f5
e7
e8
ef
f3
00
ef
e9
00
e7
19
f3
1f
19
11
d8
d9
f4
f5
2b
0d
0b
07
1a
dc
f5
d9
b9
db
db
e2
f5
ce
e7
0b
dd
0c
07
fe
06
fd
d9
d1
fb
18
14
05
f3
00
10
dd
f8
dd
14
d2
e1
e3
0b
24
34
22
03
cd
0a
da
ca
ed
e8
d0
f7
12
08
25
18
f6
bd
06
e9
cd
f4
c6
d1
f8
0c
22
26
f2
c7
ca
f1
e5
ba
cc
a7
cb
f9
20
07
e9
fa
0f
f5
cd
df
ea
cd
bb
ee
13
1a
14
38
fb
01
f8
f8
db
e0
f8
e6
fb
fc
1d
25
0e
0a
0b
ff
1c
fb
11
f6
fb
0f
e0
19
39
03
e8
13
fc
16
0d
fd
03
15
0f
22
18
23
f8
1f
0f
f5
1b
d3
e3
e7
f6
f9
fe
0a
f9
00
e0
d6
de
ea
f5
1c
fe
f6
e1
08
0e
03
ef
cd
e8
f5
e9
20
17
14
3c
20
2f
21
28
36
20
0d
f7
f9
3e
2e
1d
0e
11
06
fc
01
0b
1e
f2
0b
dd
10
08
04
fb
00
1c
f5
d1
d2
bf
f8
14
da
15
12
df
f5
13
0d
1a
f9
e5
cc
e8
04
fb
01
10
19
f2
16
13
f2
fc
d9
cd
fd
e9
d8
14
06
2e
27
04
20
0e
f1
04
e7
f4
fc
e4
06
05
0d
1b
1e
44
1c
00
e7
e7
09
eb
e8
0f
16
00
fa
15
27
0e
13
ef
0a
07
19
12
dc
fd
04
f0
ff
fe
ec
11
18
ee
0a
e0
00
d7
db
e0
e9
e7
eb
fb
f6
f4
15
19
ef
f0
ec
d9
ed
fa
f8
dd
f3
ee
f0
f6
ed
fa
18
00
19
13
ec
d8
e9
fe
f3
f7
e9
e2
13
36
f4
ed
15
ed
01
09
03
fa
ff
ea
fa
ff
01
01
0a
1b
10
15
1b
03
f7
0b
0e
07
12
dc
e8
17
ef
1d
14
cf
08
f7
ed
02
0a
15
f5
17
fb
06
e5
c3
d2
b9
bf
d0
e5
e9
ec
d9
1a
27
15
bd
d4
d4
ab
e6
e3
0d
e6
d7
f9
eb
f7
c0
d8
8d
ed
16
0c
fb
06
05
df
2b
e5
f2
dd
be
81
96
e1
1c
13
07
1b
0e
ed
d5
d8
01
cf
e9
cc
d9
25
0f
01
f6
f1
f0
02
1c
ed
0e
f0
df
27
2a
29
03
f0
ed
fa
15
1a
15
19
f7
fd
04
11
1e
05
fb
d9
0a
00
04
11
1f
2f
1c
02
b6
22
e5
06
e0
04
02
f4
0c
0a
11
22
14
21
09
03
06
e5
1f
e9
fa
05
fe
0b
01
f7
34
34
0a
ea
0c
f1
e6
0d
ef
e3
e5
00
34
0a
10
0a
13
04
ec
1e
0c
02
25
11
27
11
1c
1e
33
fc
09
03
29
10
32
13
15
fd
04
1f
23
fb
e8
22
ff
1a
22
0d
15
f9
00
fa
e9
fa
f3
cc
12
db
07
1c
18
07
ed
e7
e7
cd
ed
dd
f6
cd
ff
1b
fc
f8
03
f3
bf
bb
cd
dc
e8
e0
e2
e1
f4
02
15
f7
04
d0
e6
ca
f4
e4
f6
19
d2
05
0a
09
28
1d
18
f9
ff
19
17
0f
04
da
04
11
f3
0f
3a
26
1c
10
01
fe
16
e1
0e
0b
0a
f7
1c
17
2e
1d
19
0b
04
04
ea
14
f3
0b
0b
1c
fe
23
00
02
02
02
e8
bf
f4
f4
0c
0b
f7
16
02
fb
fd
1b
de
f5
ee
0d
cf
e8
f1
fa
ec
f1
10
19
04
07
c8
f2
eb
f5
0a
08
03
f0
f8
28
16
f9
0a
ff
01
fb
02
ee
0d
f1
03
fa
13
fc
ed
02
ec
ee
f4
14
ef
f5
eb
0c
ef
df
fa
e2
e2
08
e8
04
ed
04
1a
39
2b
f8
d6
f1
06
11
e0
de
f6
e8
da
fa
f9
fb
f6
02
0f
e4
f1
f5
15
e5
06
0b
12
fe
19
14
05
0e
fe
16
ee
f5
f6
f2
1f
f7
07
11
1c
ef
ff
fd
e8
fc
f6
f5
df
d3
f0
f0
e6
fb
fa
10
e2
f2
d8
0a
ea
f0
ea
dc
e0
f0
d8
ce
fc
f2
00
f5
19
ed
1f
ed
06
dd
d6
d3
e6
01
f2
0f
0f
ea
23
12
f9
e2
e5
fb
10
f8
13
2c
f6
d7
fb
f0
01
0d
0f
08
fd
fc
1a
0d
ec
23
01
f0
e0
ed
de
08
fe
f5
f3
f8
01
f7
0f
ed
ec
09
f7
05
e3
d5
dd
e2
fe
12
0a
e2
ec
fa
f3
ed
11
fc
12
fb
11
04
03
01
0d
03
f2
f1
e3
f1
23
f3
00
fa
05
0c
00
05
11
0d
f5
15
ea
ef
05
f9
0b
f1
06
e5
eb
e7
fa
ef
12
ec
e7
e4
14
f4
09
e8
fd
09
fb
06
f8
f9
06
fe
ff
e8
05
ee
f7
0f
e9
ec
0a
ff
fa
11
02
f3
0d
ff
0d
dc
16
f4
03
19
fe
1a
fb
eb
ff
e6
15
08
ed
f1
f7
09
1d
f6
23
e5
f6
fe
07
f8
ff
fc
ed
02
f7
fe
14
fb
05
09
0e
0e
f6
09
04
05
e8
26
0b
14
e6
08
f0
fc
0a
02
ff
de
fe
03
00
f9
de
e9
09
f8
e9
f3
ec
f1
ea
f9
f1
09
12
10
e3
10
ed
16
e3
dc
17
ec
13
18
f9
fc
dd
1a
1c
15
03
0c
04
fe
05
02
17
11
f3
e5
f0
dd
f0
ff
0f
01
e4
01
04
f1
06
de
e4
0e
fa
f1
e2
25
f0
ef
f2
fc
0e
e8
f2
eb
0d
ec
07
ff
14
f6
de
ea
ec
e5
24
fd
fc
05
fa
06
0b
fd
e5
02
ee
08
fb
fe
30
ef
e7
f5
07
f8
f0
da
d3
29
02
ef
f7
f2
f3
ec
f9
ee
f9
ed
e6
f5
f6
e1
f6
e9
01
f1
02
e1
f5
f3
06
de
e0
dd
ef
dc
fe
04
11
fc
dc
ef
dd
0a
f2
0c
fb
0d
d0
f1
f9
08
1c
19
f2
0f
06
0b
02
f0
1f
1c
05
06
ff
19
0d
e8
2e
31
e1
d2
e7
e0
ce
f8
f7
09
f5
fe
18
09
e4
f7
07
d1
e5
e9
e0
f9
f9
f2
e8
0d
07
d7
fa
1f
ee
e5
fe
0b
ef
e5
16
e8
e3
fe
08
e3
e6
f7
e5
0e
e2
da
ea
06
f7
f9
0e
16
15
11
0c
ee
0c
ee
03
f8
11
f1
21
1d
f8
f8
10
0d
07
f8
fe
ee
f0
18
f8
ff
13
dd
05
e7
01
f6
ea
18
0f
11
f3
0a
0c
fe
df
09
ee
e5
04
1c
0e
0f
f0
f0
fd
0f
de
fc
07
fb
e7
e9
1c
17
14
08
0e
11
f8
e9
e8
f4
19
e7
06
04
0e
01
11
ea
03
ee
da
e0
03
07
04
fd
ff
f1
1d
09
0c
ed
01
fd
f7
f0
f9
f8
09
fa
f2
fa
07
f8
ff
09
f4
f6
ee
ff
ea
e0
e3
fc
08
14
09
e7
e2
f9
ea
fb
f9
01
df
e9
02
d6
e4
d5
f4
e9
f5
ee
fc
ed
ff
fa
fc
d7
07
f8
e9
e1
ff
ed
00
04
fd
f9
f3
f9
0c
ef
e6
fd
15
19
f8
df
de
06
f5
fa
16
02
19
ec
00
20
f5
e7
ff
f8
12
21
2d
12
08
11
1b
1c
e4
f6
14
03
06
24
ea
14
f1
e5
1d
f3
01
d8
bc
00
0d
0b
17
1f
26
f2
0f
ef
d9
01
d9
d4
fc
13
3f
31
f0
1d
24
ea
c6
f3
cd
d8
ef
e6
f7
1c
00
e9
1a
f4
f4
00
da
02
0d
0b
14
0e
04
0a
24
36
24
1d
0f
0b
07
e7
4b
2e
46
12
2a
21
34
0e
20
39
30
2d
04
15
27
17
04
f6
fd
3d
2e
05
1e
0e
1f
18
02
fc
ea
00
ef
20
2b
3b
25
08
24
22
fa
0c
17
2e
13
e9
00
2d
0b
dc
35
02
f4
1d
0d
fc
f3
00
1b
1e
db
dd
de
04
06
08
fd
db
fa
e3
0b
f9
15
1a
f6
e2
04
e2
d9
df
fe
d8
f7
07
0b
0e
e2
0f
b2
fe
07
2e
14
24
1d
2a
08
fe
35
36
03
0a
de
1f
fd
41
33
04
10
fe
06
e9
dd
d4
d9
eb
f2
04
1d
e8
12
e2
df
0c
c8
e2
e6
d3
e8
10
25
e9
ef
f8
f5
d2
d4
cc
f1
e9
ec
1a
e5
21
17
d8
e8
db
f6
d5
00
d3
fb
fc
15
ee
f3
12
de
f2
f2
fd
f4
20
c6
f2
f8
17
f8
f5
0e
f9
f5
09
1a
0f
fe
f9
17
34
03
e4
15
14
21
d3
01
f8
e8
01
14
fe
ec
f2
1a
f6
0f
24
eb
e2
cd
e9
00
f8
ee
0e
0e
10
fa
f1
ec
0c
c2
e7
e5
fd
f2
e0
f2
cd
e8
fa
28
fc
ef
e6
fd
db
fa
fd
fe
fb
dc
0a
08
fa
f5
03
0e
f4
01
08
cf
f5
f7
ef
33
ef
f6
06
ca
eb
18
15
da
0a
e9
11
ff
0f
18
41
24
37
1e
ec
0d
1c
eb
08
04
f6
37
27
35
0b
09
09
ce
db
f9
f0
eb
b7
cb
1c
ec
0c
19
f2
c8
e8
c2
e3
bc
f9
b7
f4
f1
e6
f0
f1
10
08
10
cc
cc
e2
ba
ea
28
ee
15
15
19
3a
26
35
fb
dd
ff
f2
f7
45
e3
07
f3
2f
2e
15
ec
0a
17
13
03
2e
35
24
ff
14
3e
35
25
27
2b
16
20
06
26
3a
2d
fa
0f
32
47
30
47
11
fc
11
23
f2
e9
0d
1e
14
04
03
20
33
43
e5
ed
ef
f2
e6
f7
f7
f9
fd
03
03
26
07
3e
10
e4
ff
f5
1b
db
03
fa
1a
ed
21
17
01
06
f7
e4
dd
f4
f0
ec
f6
13
03
04
ed
e3
ca
db
e6
03
00
10
f9
fd
f2
21
06
fe
d9
0f
df
d9
16
17
30
3d
27
28
12
ff
23
ff
19
03
0e
e5
f8
30
20
0f
18
ed
fb
11
15
e6
f3
dc
e4
0b
07
16
04
fe
0b
09
d6
d0
bf
ba
c1
e3
f9
24
22
17
f1
d1
e9
c7
c4
da
d9
ce
0e
e0
05
0d
17
fd
bb
d9
de
d4
f3
00
ec
28
f4
f7
05
ee
f7
0f
0e
f4
05
df
14
f5
22
0e
06
0b
e6
f0
07
0f
05
ed
18
1b
1d
0b
f0
ef
0e
ee
fd
f4
0c
06
e1
11
fc
0d
1f
de
10
0e
ea
08
0b
e3
fc
f6
01
00
f4
e6
f0
fd
f9
03
04
ee
ff
e6
ff
e0
ef
f8
e2
ee
d9
19
e3
e1
f1
f2
f4
ee
d5
e8
f9
e2
e1
e5
d8
f8
f4
d9
f0
16
08
05
f8
0b
dd
12
ee
e7
f6
cd
05
03
18
f9
1e
22
19
05
15
1a
02
ea
e9
00
e0
e2
19
02
ea
f1
d7
12
f9
da
10
2c
3c
15
02
02
06
ed
2f
2e
fd
03
fd
2f
28
07
29
27
4a
35
46
12
2c
f3
07
09
18
ea
ef
17
1d
03
07
03
f6
dc
1a
08
f4
1c
05
1c
1b
30
0d
ed
e7
f1
ff
21
3c
10
20
05
34
17
24
16
00
04
f1
0c
2e
18
05
04
16
f7
d6
26
10
fa
eb
da
54
3a
fe
f5
f5
10
d0
e8
00
26
de
e4
09
ed
1c
0a
fc
06
fc
e6
df
dc
25
19
f0
d4
d7
36
1e
fc
fa
ed
db
02
ec
ef
f0
e3
c7
e2
1d
ff
05
22
e0
d4
1b
f6
f0
db
e6
c8
05
de
d9
01
e2
ff
ef
f1
fb
e6
d0
d2
d8
14
29
09
1a
ff
10
04
13
0d
02
f1
fe
1f
fb
26
2f
09
ef
1c
02
12
e2
13
01
02
ef
10
f8
1b
f3
11
05
08
13
01
eb
0e
2f
13
f4
0b
1f
28
29
00
e6
be
d5
e4
e6
15
f9
f0
ed
15
07
14
15
fb
fc
f0
e7
ea
11
f8
05
10
01
fc
06
f5
f7
ef
d1
d1
c6
d5
fd
f9
f3
0a
fd
df
fc
d5
db
f7
db
cf
d0
ef
eb
f1
f1
fa
06
0d
ff
28
14
0d
ef
0b
06
ff
18
10
16
31
4a
24
2c
00
14
ec
fa
fc
0c
1b
0f
11
11
4a
2b
0f
1f
ff
f0
ca
f5
d0
e5
13
f8
0f
2d
1a
13
00
fd
d0
e6
f9
f1
01
fb
0c
15
22
13
11
18
1c
0a
08
17
ef
23
18
00
24
13
19
16
1d
eb
d9
10
0f
17
29
e0
01
35
01
33
16
1e
12
0b
04
26
f7
41
32
4e
0c
05
f5
ef
de
c2
03
fe
29
15
28
22
0a
fa
e8
e0
d8
d8
f7
dd
d9
08
0b
55
fd
1e
1e
1b
09
ea
e0
e0
db
ee
e0
01
14
f7
1d
53
44
34
25
fb
e7
f6
00
0e
29
07
03
43
49
31
37
f7
ef
09
eb
ec
f4
eb
00
33
19
e7
cd
f2
fa
f2
e1
01
ff
f9
01
f7
24
00
fe
ed
f1
c0
e6
e3
30
22
2d
2b
03
fc
f4
ff
12
c0
d4
2a
0b
24
08
04
fb
19
fe
23
1a
fc
ec
da
eb
02
f7
f3
cb
e1
1c
2c
0b
0c
1d
12
08
17
17
00
bf
f9
21
04
09
d8
f4
ff
ff
15
02
10
eb
ed
d6
0c
0e
d1
f4
f1
c4
08
24
de
fc
f0
0c
fb
27
1d
2a
23
e2
10
14
07
19
1c
f1
03
40
3a
06
1e
16
14
08
db
e7
db
f8
e7
0f
ff
25
11
1c
ff
ff
04
09
11
fc
08
06
eb
fb
23
0d
16
fb
0d
1e
e3
e9
ee
ec
e8
cd
eb
08
ec
0f
39
29
26
09
f5
ec
d3
ed
09
fd
24
13
0e
06
1a
32
22
18
0d
e9
ea
f7
d4
ce
0e
f5
f1
fe
1a
18
fe
eb
04
f9
fa
f9
f1
14
f1
0d
06
0d
d6
0a
18
1b
19
13
05
16
02
ff
01
02
f4
ca
f2
07
fa
17
ff
10
fb
08
f6
f1
ef
d1
e1
f0
0f
09
07
1a
f3
e3
00
06
eb
ec
fb
f2
09
17
16
10
0b
19
e7
e4
06
e8
fa
fe
02
1a
01
0a
f3
f9
15
f1
23
f9
f9
02
0b
0d
06
1d
03
ed
21
03
1f
0d
ea
0e
01
23
fd
05
0d
2d
f8
12
15
1a
13
02
0e
19
2c
1f
e5
22
1f
21
18
e3
ea
1b
3e
f6
ec
f4
f3
f5
ee
fd
fe
18
06
2b
ed
e1
f6
e8
ec
11
e1
dd
c2
07
0c
2a
fb
f3
e6
db
11
eb
e6
c8
cf
d8
df
05
2e
fa
16
02
e7
fd
e5
e9
ed
eb
f7
0e
10
f6
2f
0b
2f
0a
fd
f1
df
e9
0b
12
0b
34
f2
d4
15
02
0d
07
fe
08
df
0c
26
26
09
12
00
22
f8
00
fa
e9
c3
ed
07
39
22
0c
04
f6
27
13
f1
fc
e0
e1
fb
11
34
00
f2
06
fb
40
ec
e4
e4
e9
f1
ef
07
fd
fd
16
f0
be
11
da
ff
f4
df
fc
2a
29
1a
10
04
da
e3
1a
f3
09
13
02
08
08
09
05
2c
0e
ff
fd
fe
f4
12
02
02
12
0a
0b
09
e4
2d
12
f5
01
e3
f4
03
ec
13
06
e6
05
17
15
16
01
ec
c8
fd
fa
e7
05
04
03
f7
30
1f
13
15
f3
12
08
0a
0c
1a
05
01
14
16
10
08
0b
38
f9
06
16
1b
02
12
1a
21
25
1e
19
fa
1a
0d
19
fb
fa
07
33
21
35
2e
16
05
05
15
e9
04
0d
14
10
f4
32
28
0e
00
fb
10
1d
16
0a
28
1d
de
10
19
05
e6
04
03
04
0a
00
1b
1a
15
ff
05
34
08
f4
05
08
28
19
12
fb
1b
25
0e
08
0d
f4
1d
03
0e
14
1d
f8
12
fa
0d
1d
0d
15
1e
24
fd
e4
de
f7
f1
04
de
fb
fa
04
13
0b
0b
11
03
e4
fb
01
ff
f0
f4
f6
f5
15
0d
31
23
ec
09
f9
00
ba
ee
f9
fc
f1
06
19
d4
c0
e2
ee
f7
e1
09
f2
dc
dc
ee
1d
05
fd
f5
0c
09
00
f3
1d
f4
f6
38
0f
13
19
0a
12
30
01
a3
c1
eb
05
24
3a
1a
12
e8
09
00
1a
26
ff
16
1f
27
56
1a
1d
c4
fc
ef
fe
0d
02
34
ec
1d
2b
2f
26
13
10
e8
fc
eb
00
1e
04
0a
14
18
f5
20
1f
08
f7
09
01
02
e9
08
16
e5
f0
f7
2f
4e
12
0f
24
12
16
21
fd
1f
fb
e9
f1
09
04
1c
2c
28
2c
1d
1d
1f
fe
ff
e1
d8
ea
27
19
24
24
00
ed
08
f8
fc
ee
f6
0b
26
15
2d
28
07
d5
02
d7
10
f4
fe
27
30
1c
2d
0d
e7
04
c7
d3
01
29
f9
1f
21
21
1b
ea
dc
de
eb
f9
f2
f6
26
f9
02
ee
fb
f8
ec
de
d6
c9
d1
ec
df
10
e4
fb
ed
f2
12
2b
f2
e6
12
ed
00
00
03
dc
0a
fc
fa
06
0f
10
e6
06
1b
06
20
db
0e
08
0c
08
06
07
fd
f1
f7
f9
10
18
21
15
25
f2
00
f8
f1
09
ff
03
ff
11
12
31
1d
fd
11
06
0a
f9
03
16
08
1f
02
fe
fa
f1
08
12
0d
01
fc
f4
ee
f8
14
f9
19
06
fb
01
11
fb
10
e9
09
05
03
0b
08
23
ff
0c
2d
18
24
f0
f6
f6
fe
fc
0a
1c
1c
02
fc
06
07
1a
11
10
02
08
06
14
20
0f
0b
10
06
0a
0d
17
00
10
0d
0a
1a
10
e2
f1
17
01
0a
13
14
1d
0e
08
f5
0a
ff
d9
0f
0b
fb
04
08
08
09
f1
fd
ef
ec
07
da
0d
e6
f9
de
ed
e4
f2
eb
dc
ce
f0
db
ef
06
e0
fd
f3
e6
fa
e0
dd
e2
10
ec
00
fc
ca
c2
c9
db
c5
c5
c4
ea
d4
03
ee
d7
4b
da
d0
ee
0d
d6
ed
de
f3
e3
cf
19
1c
d0
01
fb
fe
dc
f7
f0
de
ce
dd
f4
0b
f4
f8
15
f0
ef
e3
ee
e9
0f
df
df
ed
04
ee
fc
18
1e
04
ee
0f
13
e7
ca
e5
df
d2
f2
ff
09
16
25
11
02
21
eb
da
fa
07
04
2e
d7
0a
24
1b
19
3a
21
15
f4
0e
25
14
f3
04
ff
12
10
0d
1c
1a
06
fa
17
04
12
00
d7
ee
cf
f3
0d
19
04
de
cc
e9
24
f2
eb
e7
c0
03
f8
04
e6
dc
ec
e1
e3
ec
fd
e7
dc
f4
ee
fc
d2
fd
d3
c3
df
ea
eb
e7
f8
f5
ef
f0
fe
02
eb
e4
e8
ec
d5
fc
f9
df
ff
f2
27
fc
d3
ce
d1
f2
de
f8
13
de
04
f2
e5
00
fa
f5
f2
05
f8
f4
32
23
24
ea
29
ff
16
1b
fe
05
14
11
28
1f
23
18
1b
f2
27
08
07
14
0a
0b
11
24
46
2c
21
f3
fc
f9
25
1c
19
05
1c
36
48
39
37
1c
f7
d9
07
18
06
24
15
05
1f
1e
12
23
e9
06
e8
1b
fe
09
e1
e0
e9
09
fe
1d
1e
38
0e
fe
f4
f5
18
db
dc
df
ec
da
12
0c
11
e3
f3
f7
ec
10
ed
fc
f2
09
db
de
0d
ef
10
d6
f1
f9
03
1e
1e
09
f5
f9
1e
f7
00
1f
f2
ea
02
06
1d
29
2a
18
11
30
03
18
16
db
1c
1f
12
fe
22
1c
0e
1b
fd
07
fb
0e
f1
12
14
18
0a
e0
02
d9
db
f0
ed
f3
0b
10
22
d7
f0
0c
f2
f7
ec
f7
0c
fa
f8
01
20
d6
ed
14
14
6a
23
30
0d
05
18
e9
ec
08
f9
f6
04
35
45
2d
22
22
07
e9
0f
f2
20
05
12
2f
46
38
31
0c
13
03
0b
0c
1a
11
24
07
1d
fd
1c
00
17
00
20
07
01
14
e9
02
06
d9
12
0f
0a
f7
ef
f9
03
04
0a
01
ff
1e
06
fe
21
20
0a
e9
e5
f9
f8
10
f7
fe
10
f4
0a
15
18
e0
02
c6
d0
14
0e
fe
23
eb
f0
f7
ff
e1
ed
f2
c3
c9
03
df
e7
f8
07
04
fc
f2
be
dc
f0
ed
ed
f8
08
ef
e5
fa
fc
ed
bf
c5
e4
36
27
0e
2f
09
fc
08
02
eb
f1
e0
11
18
40
69
12
e3
24
e9
19
1d
00
1c
27
20
30
46
1f
09
1f
23
fe
d1
10
dd
f9
ee
f1
e5
d7
eb
f5
e3
e6
fc
f7
09
25
e7
0b
f8
f8
eb
f3
28
08
07
0e
19
01
fa
f4
ef
09
1d
f8
f6
ec
f5
ec
0d
fc
13
f6
05
17
ee
f4
f3
f3
f4
fb
00
f5
f5
14
13
09
1a
02
fd
05
1b
fb
1f
29
e4
0e
3b
2d
0d
10
f1
16
17
16
1b
15
1d
f6
19
02
0b
1c
f3
e4
0d
1f
06
09
1d
1b
14
ff
12
09
f1
01
f8
17
18
0a
16
ee
eb
02
02
f8
ed
ef
fa
02
fb
09
10
01
f6
08
ce
03
f8
e4
02
fa
09
f9
09
09
0c
e2
f9
db
e9
e9
ed
f9
00
e2
f7
0e
17
00
fe
f9
db
ef
f9
fd
09
ef
fe
fc
08
0b
18
11
21
fc
f7
f5
09
f5
f1
08
22
ff
f9
17
0e
05
de
f0
fe
24
17
45
fd
23
1b
05
05
0f
19
1d
3c
42
1e
31
03
21
0c
12
2b
0c
23
00
fe
28
0e
0a
16
09
0f
fa
20
1b
18
f0
f2
07
19
f0
11
06
13
08
06
07
30
f5
e9
ce
25
06
f5
01
f4
f9
07
f1
0f
f8
13
d9
dd
f4
fd
1c
fb
f5
f7
07
f7
fa
1b
f7
09
35
dd
d7
09
fa
f2
1b
02
fb
cb
ee
e5
2e
1f
02
0d
0d
fa
1f
1a
31
45
ef
f2
1e
11
28
1f
fd
0a
07
0b
20
4a
3d
29
2c
24
03
18
f4
05
f7
14
23
36
55
16
21
2f
2b
10
20
23
09
01
0f
23
25
0e
f3
e2
f7
ec
fe
05
f3
ed
e2
ed
f7
f3
06
e2
e7
f3
ea
ec
c8
26
e7
d3
c1
e9
ce
d5
ed
dc
e9
f9
e7
dd
ed
0f
ed
04
2b
fa
1a
f3
f9
fe
fe
0f
11
da
3c
d7
e1
d1
df
fe
fe
1e
f6
17
ef
fc
eb
f0
03
f3
ea
0a
fa
0d
0a
e6
08
d3
03
ff
03
e2
ed
04
ef
fd
db
fc
09
06
da
16
fa
fe
02
02
f3
ea
f6
15
db
f1
06
fe
fa
04
00
08
fa
09
dc
ea
fb
fa
f0
1c
05
01
f5
1d
00
12
ea
f7
07
f1
02
fa
12
05
11
fa
13
fe
12
03
21
f0
0e
fc
fa
15
07
02
ff
19
16
05
1b
f7
f6
e3
d9
db
18
e8
f6
e1
e9
13
dd
e5
d6
00
08
c2
d6
ff
e8
e9
d8
14
e9
01
f1
e0
e0
d0
d2
07
e7
bb
e6
df
f4
d3
df
fa
d9
d1
02
00
ea
dc
e5
e9
ef
f4
fb
eb
fb
09
17
d9
de
ff
f5
e9
eb
16
08
2b
0a
f7
0a
0a
ec
16
f4
0a
1f
14
e3
22
12
f6
0d
cc
fc
da
ec
09
13
05
16
04
03
ec
f6
07
f7
f1
e9
fe
ef
17
04
fc
bd
10
18
f3
17
fc
05
02
19
0f
07
1b
06
fa
2e
f8
dd
e5
12
15
e0
00
12
2b
21
17
07
f9
f8
d1
f2
07
f9
1b
2d
f8
23
d1
11
f3
e1
e6
da
c6
13
fa
1e
0c
08
15
0d
2c
fc
08
04
e3
bd
e6
e8
e4
f7
fa
ef
01
f6
fc
04
f5
0b
00
16
12
1b
1c
2e
15
f1
d8
f4
15
08
29
20
16
56
1d
0a
23
0a
cf
f5
d3
f0
0f
ff
2d
26
db
b4
d4
cb
f3
ba
f5
df
19
05
04
31
1c
bd
f0
d0
f1
ee
d3
dc
21
17
e0
b0
fd
d6
d8
e3
d4
0e
f0
17
1c
10
43
03
f3
16
f4
f0
e7
19
18
ee
00
09
f7
39
04
d3
f1
ef
0a
ee
06
0a
1a
09
e4
e7
e8
fa
f6
f5
04
1a
13
fa
f9
ff
e4
01
e9
20
f2
f3
eb
eb
f5
0a
e6
0c
f2
dc
00
08
0c
0f
fa
f8
df
0f
f2
f7
ee
fd
0a
06
0d
f3
fc
e3
eb
00
e1
e2
fe
0a
19
f9
0f
1a
00
fe
12
05
20
08
e6
e7
ec
f8
f8
2b
12
01
12
05
0b
f9
00
09
f2
0f
15
0f
21
f3
2b
07
2b
08
06
f5
03
e5
e6
e9
ec
e3
f9
12
01
14
fc
e2
da
05
fd
e2
df
d2
d2
de
1b
01
f5
19
06
ec
cb
d7
fc
ed
bf
c1
d6
0f
e7
f3
e3
f4
e4
e7
e6
de
ff
c9
ed
e1
09
cc
d3
c5
e0
07
e3
de
07
d2
f8
dc
15
05
07
16
f1
ff
0e
15
0b
f5
05
f4
0f
fe
e9
0b
e4
eb
06
08
13
17
ed
e6
e3
fc
0b
03
0c
e7
fe
ee
e3
1a
f8
ec
06
14
e7
0e
ed
ea
11
f6
08
0d
06
fb
0e
f5
1a
ff
f8
ee
02
fa
11
fe
f4
f2
00
1f
01
01
e9
07
03
ea
f3
f4
fe
ea
f6
da
e0
de
0c
f7
f2
15
ed
fa
09
ff
0e
ec
f8
ef
e1
f9
eb
fc
00
e2
09
20
18
0f
e6
0f
1d
f0
0d
fe
ff
0d
e0
02
f4
fd
fd
12
14
f3
02
19
05
f0
fa
f3
e2
06
ee
f1
fc
d3
06
0e
eb
e3
00
e6
06
f2
06
e7
ea
de
ec
ef
e4
f0
ef
f8
0b
f5
f8
05
fa
ff
01
f2
fa
f7
11
e9
ef
e9
14
14
ff
ed
fd
00
01
05
0b
08
16
e5
21
f8
14
08
17
0b
fc
09
0d
05
e6
ea
08
12
04
14
f6
00
f6
14
ee
fe
0b
13
10
0b
02
e6
f6
0a
f2
02
12
e8
06
07
05
ee
18
0a
0f
1a
18
f4
f7
f9
08
f0
0e
f6
f0
f4
fa
f1
18
e8
e5
f0
e7
e5
ee
0d
07
14
f1
0e
09
08
0a
05
fb
e8
0b
f5
fd
f3
00
01
ed
e1
05
e9
ee
e7
00
10
ef
08
f0
e4
09
fc
f2
fb
00
0c
e8
03
f7
e0
0f
15
e3
0a
e5
ec
e6
01
fc
e1
dd
f0
0f
fd
0a
ec
ee
ee
f0
0d
15
0e
e9
17
ee
0d
00
19
0e
e5
05
e4
03
eb
01
f4
f1
da
f4
0e
05
f8
0c
16
fe
ef
e7
e7
f6
ed
e5
0d
e9
eb
f1
1d
18
10
16
fd
15
ec
db
0b
18
eb
14
12
00
bb
ba
c8
12
0e
0c
f8
eb
02
07
13
10
e8
e7
e1
04
01
eb
e7
f9
ec
e5
0b
0b
13
14
cf
fb
e5
05
fc
19
f1
e8
1e
06
17
18
0a
fd
14
ff
0a
f9
01
0c
02
ed
fb
1e
06
0b
08
ff
f2
df
de
10
01
f7
fc
03
14
ff
f3
ed
e3
10
f7
10
1d
ff
03
00
08
01
fa
eb
b8
e6
07
dd
dc
d8
04
fd
0a
0f
f0
f6
f8
16
f7
f0
17
fa
06
d7
eb
e9
f3
02
0b
14
f2
e3
e1
12
06
ef
13
d9
ec
f0
ef
0a
e9
0f
e9
dc
07
12
e5
e7
01
14
ed
fe
0b
03
16
f5
fb
14
0b
fb
e5
fc
e5
d7
17
12
c3
cb
ee
16
1e
f3
06
e0
f4
f4
d8
fb
e7
e4
eb
ee
0e
06
f1
14
e7
f1
0a
ef
e1
be
be
10
f8
f7
f1
ea
08
e3
ea
e6
12
0d
fe
fd
13
08
16
eb
eb
f0
03
fc
05
05
06
ec
f9
eb
0a
ed
06
08
0d
ec
fb
f7
f2
0a
17
e9
0b
12
e8
14
e8
0c
e8
06
ea
0d
13
0c
e9
12
ea
f4
10
e9
fd
f0
df
f6
fb
fe
e4
fc
16
09
08
ea
03
ed
10
01
0e
05
fc
0b
03
ea
04
ef
1a
e4
f7
0a
ed
f7
12
f2
ec
fd
e9
e5
09
fa
07
02
02
00
e8
f3
05
08
0f
16
f7
0d
0e
e6
ee
e7
ef
15
15
15
14
fe
14
f6
ee
09
09
fb
fe
08
09
df
18
e1
e9
e7
fb
0a
03
09
e6
f9
11
f6
db
fc
01
0d
1a
ec
e7
f3
fd
08
13
de
13
dc
f9
01
19
f3
0a
fa
0e
07
19
de
04
01
fe
f9
02
10
ee
e9
ef
01
00
e5
ea
05
00
11
0e
e7
ee
f3
03
ef
06
f6
12
14
13
f3
f8
fb
f3
03
eb
f5
fc
fa
f0
e9
ea
f6
ec
f2
e8
ee
f5
e6
08
f6
e5
e4
df
dd
04
f8
fe
ec
f6
ea
ec
f6
e7
0e
f8
e0
07
05
02
ee
f2
ea
fe
eb
e1
e4
f9
12
ed
0c
18
e2
12
ef
0f
e9
f9
0c
0a
0f
fa
e8
ea
e6
f5
f4
e7
f1
f1
e4
e9
19
f8
dd
f8
f3
10
07
f1
15
07
07
02
ec
f8
e4
f1
ee
0a
0f
0b
fe
e1
10
ed
fb
f2
e9
ea
e2
fd
0c
01
ec
f4
f6
e6
ed
01
15
dc
09
eb
dd
e2
0b
f5
f2
f7
eb
ef
ee
fd
fb
f6
fb
f1
ff
fd
e6
16
f9
f9
e1
15
12
09
ff
01
dc
f7
f7
ed
0c
f0
0b
f7
01
e9
08
eb
10
f9
ea
02
f1
01
fc
f1
08
28
f7
ec
09
01
06
f7
f8
ea
fb
f3
13
f8
0e
ed
df
e5
12
f1
06
ee
0a
dc
f0
10
0f
0c
17
fe
f0
e1
04
eb
0d
f0
fa
0f
00
f1
05
ef
df
fb
f3
e3
04
f4
04
0a
0a
f7
ff
ed
e5
f3
00
e9
fd
05
e8
fb
10
e6
e7
e8
11
19
e5
f6
09
03
ff
01
ee
ef
f0
15
04
e6
ee
01
04
f5
ef
ed
07
0b
ec
0b
05
fe
ff
f1
e6
07
10
fa
09
e8
f4
f0
ff
fa
03
08
10
fb
f5
07
05
dc
e4
f8
10
e7
e7
f8
05
f3
02
f6
f5
0b
06
0b
0f
f0
13
ee
02
01
0e
f8
15
14
04
f8
fa
0f
02
f0
12
07
17
f4
fe
16
16
0e
e8
f1
18
e4
0c
08
ec
03
f1
fc
e4
e9
e7
07
fc
eb
fc
fa
fe
0b
e9
f0
20
dc
07
10
00
eb
0d
fd
f4
08
e7
01
fa
04
f8
f6
e5
0d
f0
fe
df
fb
f3
07
13
ea
05
13
e0
f8
0f
0f
0d
f3
f4
ff
f2
03
f7
e4
10
03
0c
11
05
e6
fc
ec
fe
e5
eb
07
dc
e2
00
f2
f8
16
10
fc
0d
13
ef
fd
ff
0f
07
06
fd
f8
e9
0c
fb
fe
04
05
17
04
04
01
01
0f
eb
e7
08
e5
e9
fd
ef
e4
fc
e7
f0
fa
03
09
df
10
ee
00
07
ef
dc
f5
e8
f9
06
05
05
05
0f
08
00
ec
fb
f9
09
f2
f7
0e
dd
f4
db
fb
e8
18
06
f5
09
05
eb
03
03
01
1f
06
f4
06
12
1f
03
d6
ed
e3
ff
eb
02
f9
02
e3
04
0f
16
f6
15
e9
07
ea
fa
f1
00
0a
e4
f1
0c
08
03
07
05
f8
dd
ff
ec
e1
07
14
17
ed
12
f8
f6
de
0c
04
02
e9
09
14
0e
ff
f0
fb
14
08
ef
01
0a
e1
ea
09
0f
0b
0f
ed
e1
fc
0d
05
fc
e4
04
f4
f3
f5
e3
f7
0a
02
eb
fc
0b
08
f3
e8
0b
08
f0
e8
11
ed
e6
f7
fa
e6
11
f8
fb
0d
f4
00
05
08
00
de
13
0c
fd
0a
ed
de
07
e0
e2
f8
ec
04
ec
f3
e8
fd
f4
0c
03
fd
02
e2
10
ff
e2
f0
11
f2
f4
03
f1
eb
f8
10
0f
fd
ef
f4
0f
fd
06
0b
07
fa
e4
07
ed
f9
0a
06
01
f7
f0
fb
17
0e
fb
e5
ec
e8
f7
00
0e
fc
fc
09
f0
f5
0c
f4
11
f0
ec
0f
01
fd
05
ec
14
ee
1b
19
0b
00
e8
f7
05
ea
ec
0a
f9
04
ef
00
e9
00
1b
ea
0a
04
01
0e
ef
fe
e9
ed
ed
0b
ff
ec
12
e5
fe
fb
11
18
00
1b
1b
ed
eb
e6
f1
ef
dc
e6
f7
e4
f6
04
ea
f1
17
13
fc
0e
13
16
10
e8
ee
02
f5
0e
1d
f1
01
11
e9
e5
0a
33
ed
fd
08
d8
1a
25
04
1b
ff
e7
f1
da
f9
09
15
f3
11
27
fa
e2
ed
d0
dc
f7
e9
f9
f2
0b
1c
ff
0c
0a
fe
f1
08
d9
cd
d4
db
18
11
1e
f0
08
e7
0a
e8
ee
e1
0c
e9
fe
1b
ed
26
12
f0
17
f0
f7
ef
24
29
14
0b
02
0a
17
f8
16
21
1a
0d
00
13
ff
f0
04
da
eb
ef
f3
fa
19
00
05
ff
04
d4
ce
d6
fd
ee
e1
e8
fc
04
e2
d6
ff
fe
ea
04
ea
e8
ff
01
09
19
1b
ec
18
fd
d0
e6
eb
0d
f2
0c
e1
10
ef
fc
07
ee
0c
f0
e6
ef
cb
04
f6
f6
09
fa
0e
1c
05
04
06
0b
f3
d5
10
04
f5
0f
dc
08
14
e1
f0
f5
f6
ea
e0
df
d4
01
18
08
1d
0b
04
e7
ea
dc
d8
ea
fc
f3
f8
ed
f4
0b
e8
d9
06
d7
ed
ec
e7
df
ef
d1
f5
f3
09
ff
da
e5
e4
00
ec
ed
ef
1d
13
0d
e8
e7
06
ea
00
1c
11
dd
07
fe
12
08
f0
04
f9
0e
06
ef
05
f1
00
f0
f5
fa
fe
22
15
06
0a
f8
e3
fa
f8
e9
f2
e5
e4
fd
12
0c
04
01
eb
f4
00
fa
e8
05
fe
ee
f5
16
0a
fd
ea
fe
fd
f3
f8
f8
0b
ef
08
05
ee
14
dd
03
ff
f8
0d
fe
f2
eb
e7
04
f3
12
f3
d3
fd
19
f9
ff
01
f6
cf
d0
e4
07
e4
e8
da
d8
f3
f4
07
09
30
19
05
dc
eb
eb
e5
1a
fb
e8
04
01
04
0c
19
30
0e
00
15
fb
e6
0c
e9
e3
06
28
1c
23
2f
1d
02
19
dd
17
08
f0
d9
e1
e0
26
0d
ff
12
0b
f9
13
27
0f
dc
09
f2
13
dc
0a
04
eb
f4
0a
f0
00
06
04
ee
0a
04
03
1d
f9
f8
ee
2d
0b
03
00
f1
10
e5
17
e6
ef
17
f5
19
1b
19
0a
1d
27
fe
18
05
e1
e3
f7
1a
cc
00
0d
12
ff
fb
f4
06
25
01
16
02
f9
ea
0f
fc
07
ed
fb
0d
06
d9
04
d9
07
05
d8
fd
02
e2
f3
04
eb
f4
fe
df
fc
f8
e0
0a
f8
dc
f8
e6
d4
e4
05
0c
03
f5
f9
08
0c
04
05
0e
f0
05
03
dc
ea
e6
e6
0b
fe
e6
0a
ea
11
10
0b
f6
fa
f7
d8
d3
00
e7
e7
e7
0a
f7
0c
0a
0b
0a
e8
e8
e8
0e
f8
09
f7
f3
26
1e
02
01
ed
06
fe
f1
04
00
e3
0f
00
0e
1b
07
e9
f9
e3
0b
e9
ed
e9
d5
f3
0d
f3
0d
d3
d5
d9
d8
00
1a
fd
f9
e8
fb
ef
01
d7
08
f3
f7
e6
0c
04
f9
f2
0c
f9
12
1a
10
f4
d7
ed
f8
06
05
0e
f1
07
ee
0c
13
ec
e0
01
0e
f5
01
e3
06
f5
fe
17
ee
06
e4
da
e8
fd
03
f3
1a
dc
e0
e5
08
f8
07
e2
f0
de
ed
f8
df
e4
d4
f6
e6
f0
e7
e7
f2
03
05
00
e5
f6
fa
fd
dd
fb
f7
eb
