18
47
bd
24
1e
d4
43
fd
e1
e7
b2
90
28
f6
b2
3a
d3
d8
bd
d5
cc
0f
d1
27
33
35
33
3c
b8
04
4a
38
03
e1
22
cb
00
b6
14
d4
01
a9
58
bf
67
5c
e0
2c
21
3d
4c
a6
01
a0
11
22
a5
9d
d3
f7
a0
0e
f5
f1
fe
33
9f
d9
cb
46
9b
17
0c
f5
cc
1f
cb
dd
07
e6
ef
e9
33
0b
ec
ca
b8
18
02
2b
1b
c2
57
f4
9e
07
38
2b
d3
32
e5
25
df
58
b6
0c
e6
bc
e7
1f
07
04
0f
e5
30
a8
0a
b4
66
3f
51
f3
3b
d8
42
c2
02
04
bc
0f
da
c9
86
99
07
f3
10
42
f0
0c
c2
e0
d4
27
ea
0d
5b
e1
a1
56
14
42
e5
51
e5
fd
f9
ee
40
33
c3
b9
55
4f
df
2c
7d
c4
d0
3b
34
dd
b8
39
d6
60
e4
5b
e2
f2
f3
00
9f
ea
e8
d9
d5
e2
2c
3c
1f
ad
26
31
dd
9f
15
f8
eb
a4
ca
18
3d
fd
b6
0d
0b
c8
2c
f3
e4
c4
43
2f
14
d6
9f
b9
c8
1d
bb
58
15
cc
2d
ef
0c
b9
59
d4
4c
3c
a9
1d
c3
4e
17
e6
22
9c
df
ee
24
b5
c8
06
e8
0d
0a
32
0f
ae
e2
11
9f
d9
54
d4
c9
ef
f2
31
12
be
92
f5
39
f9
ba
47
36
ef
e4
94
bf
0e
c6
cb
03
4d
e0
eb
40
1e
34
c5
fa
db
df
a9
ee
31
a8
04
e5
2a
c3
e5
b4
89
e9
e7
dc
e2
0e
08
5d
39
ab
24
12
07
b6
e9
e7
17
d9
42
d4
f3
26
af
c8
46
e9
97
f8
30
2e
dd
ad
b2
2b
48
37
45
a3
a7
29
dd
a2
03
fc
9e
0c
11
22
f4
07
fa
29
bd
53
07
14
19
f7
04
52
f6
2d
c9
55
ca
39
d3
49
56
af
dd
09
f0
1b
23
ac
22
00
c1
34
b9
4b
03
4a
42
50
9d
20
2c
a3
95
23
5a
3e
a7
ef
14
0e
b9
0b
e0
1d
cc
d5
09
b3
53
07
d9
11
23
c9
12
c5
26
1b
fc
04
c2
a1
d2
d4
a9
f1
f8
14
2c
db
35
a6
22
4c
0c
d7
06
d2
ea
d8
30
0b
c1
12
c2
e0
e3
c1
b3
42
29
2f
bf
16
fb
3f
dd
55
fc
de
0a
54
01
fe
b3
41
cd
3a
15
00
18
90
dd
f8
a5
4e
b2
d1
ba
be
17
46
e7
d4
d9
45
d2
dd
ed
04
c7
15
f3
67
22
29
27
cf
32
d4
07
8f
d5
d1
02
33
de
f5
bb
0b
12
3a
0b
d8
d4
45
ec
0a
03
d3
f2
ad
2a
57
59
4f
eb
2c
5b
d2
f1
50
1d
61
4e
1e
1b
03
e5
db
d2
de
de
64
e8
ab
52
9d
d9
cc
a3
b8
38
f8
46
f6
ef
04
39
b8
ea
3a
07
ad
d2
f8
af
b7
5b
00
a9
e8
b6
84
20
c8
39
4b
29
2c
ac
d0
ee
bf
d5
50
24
cd
51
11
1f
f4
2f
cf
4e
38
fa
fa
f0
e6
b5
ae
b0
cf
c8
07
d7
c9
4a
ab
ee
af
c8
21
3f
0e
9e
02
fd
cb
92
c2
04
a7
4a
17
3e
2b
43
14
bc
c3
1a
c3
54
39
ab
f2
a7
ec
9e
99
02
57
dc
40
06
31
81
38
29
44
da
f2
f3
c5
4c
c3
33
d9
d9
b5
b1
27
5f
ed
ae
b8
8e
f4
b3
a6
44
58
45
41
3d
f5
f5
e9
aa
c8
e2
47
e8
cb
49
29
de
d3
e1
a4
43
5f
40
bd
fd
c5
5e
c8
cc
f9
de
dc
5c
f6
08
21
d9
b9
c0
d0
ab
3a
ef
b3
28
18
d8
13
ef
e6
fa
0f
a1
34
1b
f6
46
f1
e9
ad
13
a8
f8
1c
da
12
a4
1a
09
28
29
2d
99
18
4d
cf
d9
3d
e2
fd
0e
b6
df
02
13
34
0a
1e
50
0d
2e
c4
c8
21
45
15
fa
46
40
a7
f6
64
b9
e5
11
ac
b6
df
c8
7a
cf
fc
55
2b
09
9e
58
b6
2e
32
0a
04
f8
e1
37
ae
3e
b8
d2
e6
ca
cc
4d
16
ca
32
41
4a
bf
c8
34
f6
bf
40
dc
12
a1
ec
e8
ea
f2
8d
c4
24
e2
38
fc
c5
27
ee
44
12
b2
cf
e8
c2
4c
ae
24
48
fc
d0
0f
a1
a0
a9
8f
8b
af
42
f4
c1
0a
d6
b7
02
20
ee
0c
30
d1
c7
ec
19
c8
31
b3
f2
b7
f3
38
ae
1d
57
f7
ab
d5
8f
ea
11
b7
f2
f2
4b
f3
dd
d1
a4
b5
e5
e6
9b
e9
49
35
3b
c7
23
cd
c5
1c
1c
c3
e6
46
d5
cf
47
99
ca
3f
11
f2
93
a6
26
b5
27
51
1c
f0
27
24
c8
c4
db
e3
4a
41
18
0e
3b
bd
38
a0
12
31
f3
3c
5f
c3
e9
c6
3a
ce
f0
e1
0f
9d
15
4f
fd
d6
c0
da
d0
9f
b5
32
d6
e8
48
24
1a
3a
c0
c8
2c
d1
eb
1c
b8
9c
19
cb
c5
fe
55
ad
31
1a
a8
e2
9d
04
44
3b
c1
ff
de
28
0a
3c
a7
ec
d6
f0
18
f3
cc
c7
e5
ab
39
af
4f
a0
d2
e5
c1
3c
0a
02
da
f3
a2
01
d1
9c
b4
88
cd
1b
ca
19
