cd
2a
f8
33
59
e1
01
46
c0
64
52
55
ac
b2
fc
dd
25
d2
0c
ac
1a
d4
63
1e
18
fa
44
1f
12
b3
0c
47
32
d9
be
e5
2a
28
de
14
06
dc
43
0a
d8
2b
55
25
2e
f4
56
b8
4f
35
cb
07
35
17
20
44
db
32
d6
d4
17
ba
03
f4
f9
bb
f6
14
f5
bb
f0
09
a1
40
39
e3
52
00
53
53
46
fb
ea
ff
14
f1
f9
d4
14
d7
1d
aa
56
50
18
f9
66
b6
12
39
d1
f2
0d
0d
eb
1f
e8
df
0d
32
0b
e0
13
39
af
2a
0b
23
f5
b9
49
68
27
b9
3a
50
b5
f7
ff
ac
30
b7
2f
5b
2e
d3
f0
11
17
f3
2c
01
35
fb
6c
10
d3
55
28
47
05
3a
b2
16
14
32
28
ca
0b
20
f0
07
1b
7f
cf
47
46
0f
50
bd
43
03
09
37
f0
e4
40
fa
dd
08
d4
40
04
e6
f7
08
d7
b4
25
1d
d0
51
31
ee
ef
51
dc
5e
4f
f5
2d
2c
d2
1b
29
a7
3b
00
41
d9
2c
10
2e
f8
45
34
3b
19
37
67
64
4b
fb
0e
f1
cd
dc
f8
e8
3e
ba
da
b4
dd
b0
f7
23
fe
25
cb
18
25
a6
db
5f
0b
00
e2
46
c3
25
1b
e5
98
0c
0b
0e
1c
1d
3b
28
39
02
01
23
fb
21
f7
0b
45
fb
5a
eb
f5
4b
dc
fe
14
1c
18
bf
42
17
5f
1c
e9
f8
f6
38
c8
58
2e
f2
46
00
11
ea
56
3c
f3
0f
54
b4
24
09
05
2a
ec
30
5c
e7
50
4d
43
3d
b9
